<pad>	0
<s>	0
</s>	0
<unk>	0
세요	-0
▁사	-1
▁좋	-2
▁있	-3
▁이	-4
▁거	-5
하는	-6
보세요	-7
▁그	-8
▁나	-9
▁아	-10
예요	-11
▁마	-12
▁사람	-13
▁좋아	-14
어요	-15
▁같	-16
▁거예요	-17
▁하	-18
▁생	-19
▁다	-20
▁어	-21
▁가	-22
▁안	-23
▁해	-24
▁수	-25
▁사랑	-26
네요	-27
▁연	-28
▁없	-29
니다	-30
▁생각	-31
▁자	-32
▁잘	-33
▁힘	-34
친구	-35
▁싶	-36
▁여	-37
봐요	-38
▁너	-39
▁많	-40
▁말	-41
▁만	-42
▁남	-43
▁것	-44
▁시	-45
는데	-46
▁내	-47
▁마음	-48
▁않	-49
▁너무	-50
아요	-51
▁기	-52
▁보	-53
▁지	-54
▁오	-55
▁바	-56
▁좋아하는	-57
▁더	-58
해보세요	-59
▁이별	-60
▁정	-61
▁연락	-62
▁헤	-63
하고	-64
▁일	-65
▁헤어	-66
▁짝	-67
▁있을	-68
▁고	-69
▁썸	-70
▁여자	-71
▁남자	-72
으면	-73
▁되	-74
▁힘들	-75
▁좋은	-76
▁모	-77
▁한	-78
나봐요	-79
▁알	-80
하지	-81
▁많이	-82
▁시간	-83
▁게	-84
▁사람이	-85
▁때	-86
▁상	-87
에요	-88
▁저	-89
으로	-90
▁무	-91
▁못	-92
▁친구	-93
▁건	-94
한테	-95
에서	-96
▁전	-97
▁주	-98
▁먹	-99
▁좀	-100
▁중	-101
▁결	-102
해요	-103
▁같아요	-104
까요	-105
겠어요	-106
▁부	-107
▁있어요	-108
▁싶어	-109
▁인	-110
▁대	-111
▁살	-112
▁조	-113
▁당	-114
▁받	-115
▁뭐	-116
하면	-117
▁선	-118
▁될	-119
▁제	-120
▁후	-121
▁오늘	-122
▁같아	-123
▁만나	-124
▁할	-125
하세요	-126
이에요	-127
하게	-128
▁괜	-129
▁걸	-130
▁끝	-131
겠네요	-132
주세요	-133
▁자신	-134
▁소	-135
에게	-136
▁이제	-137
▁미	-138
▁진	-139
▁드	-140
겠지	-141
▁들	-142
▁좋을	-143
습니다	-144
▁아니	-145
▁괜찮	-146
▁마세요	-147
▁필	-148
라고	-149
▁잊	-150
▁감	-151
▁있는	-152
▁마음이	-153
▁하는	-154
▁연애	-155
▁비	-156
게요	-157
▁내가	-158
▁필요	-159
친구가	-160
는게	-161
▁해보세요	-162
▁혼	-163
▁스	-164
▁왜	-165
▁모르	-166
▁공	-167
다면	-168
▁어떻	-169
▁예	-170
▁차	-171
▁집	-172
▁다른	-173
가봐요	-174
▁타	-175
▁행	-176
▁어떻게	-177
▁물	-178
▁짝남	-179
▁시간이	-180
▁헤어진	-181
▁날	-182
▁돼	-183
다고	-184
▁서	-185
▁신	-186
▁없어	-187
▁도	-188
▁애	-189
▁당신	-190
겠어	-191
해도	-192
▁방	-193
▁싶다	-194
겠죠	-195
▁관	-196
▁우	-197
▁다시	-198
사랑	-199
▁혼자	-200
▁했	-201
▁맞	-202
▁있어	-203
▁눈	-204
인데	-205
▁하고	-206
▁또	-207
▁결혼	-208
▁정말	-209
들이	-210
▁지금	-211
▁정리	-212
▁노	-213
▁잠	-214
▁수도	-215
▁재	-216
▁기다	-217
▁찾	-218
▁싫	-219
▁계	-220
▁중요	-221
▁참	-222
▁새	-223
▁그런	-224
▁준	-225
야지	-226
이네요	-227
할까	-228
▁행복	-229
▁조금	-230
▁따	-231
▁편	-232
▁확	-233
▁같이	-234
어보세요	-235
▁데	-236
▁위	-237
렇게	-238
▁것도	-239
▁놀	-240
▁언	-241
은데	-242
▁고민	-243
▁얼	-244
라요	-245
▁쉬	-246
▁아직	-247
▁추	-248
▁두	-249
▁피	-250
▁짝사랑	-251
▁먼	-252
▁의	-253
이라	-254
▁반	-255
▁자꾸	-256
▁달	-257
▁성	-258
지만	-259
지도	-260
▁준비	-261
보다	-262
▁선물	-263
▁찾아	-264
▁배	-265
▁힘든	-266
▁누	-267
▁화	-268
▁보고	-269
▁아무	-270
합니다	-271
▁느	-272
▁저도	-273
▁변	-274
볼까	-275
▁고백	-276
▁없어요	-277
▁술	-278
까지	-279
야기	-280
이죠	-281
▁카	-282
▁짝녀	-283
거예요	-284
▁맛	-285
▁바랄	-286
니까요	-287
▁그럴	-288
겠다	-289
▁후회	-290
▁꿈	-291
▁몰	-292
▁운	-293
을까	-294
▁먼저	-295
▁서로	-296
▁진짜	-297
▁바랄게요	-298
해서	-299
▁없는	-300
▁충	-301
▁돼요	-302
▁방법	-303
▁사귀	-304
▁제가	-305
봅니다	-306
▁이야기	-307
▁심	-308
▁적	-309
▁문	-310
해야	-311
▁헤어지	-312
▁직	-313
▁시작	-314
▁동	-315
▁헤어진지	-316
▁불	-317
▁들어	-318
▁귀	-319
▁돌	-320
▁해야	-321
▁있을까	-322
▁올	-323
에는	-324
▁그녀	-325
▁하나	-326
이야	-327
인가	-328
▁계속	-329
▁일이	-330
▁답	-331
▁나를	-332
▁받아	-333
▁아닌	-334
▁좋아요	-335
▁버	-336
▁줄	-337
▁공부	-338
▁사랑이	-339
해주세요	-340
▁1	-341
▁매	-342
▁감정	-343
▁마음을	-344
이트	-345
▁가능	-346
▁될까	-347
▁보세요	-348
▁왔	-349
▁기분	-350
▁여자친구가	-351
▁먹고	-352
려고	-353
▁힘드	-354
▁남자친구가	-355
▁돈	-356
기가	-357
면서	-358
보는	-359
▁만들	-360
랍니다	-361
▁여자친구	-362
▁현	-363
▁실	-364
▁회	-365
대로	-366
했어	-367
▁드세요	-368
▁않아요	-369
▁하세요	-370
▁떨	-371
▁신경	-372
▁이상	-373
다는	-374
▁좋죠	-375
▁하루	-376
▁곳	-377
▁세	-378
▁쓰	-379
리는	-380
지는	-381
▁간	-382
니까	-383
▁많은	-384
▁하지	-385
▁걱	-386
▁머	-387
자고	-388
하기	-389
▁걱정	-390
▁떠	-391
▁믿	-392
▁알아	-393
▁속	-394
▁취	-395
▁함	-396
▁싫어	-397
입니다	-398
▁바랍니다	-399
나요	-400
▁상대	-401
▁분	-402
▁원	-403
▁표	-404
하는게	-405
▁영	-406
▁그래	-407
▁사랑하는	-408
▁관심	-409
▁기억	-410
▁힘들어	-411
▁쉽	-412
▁해요	-413
▁데이트	-414
▁남자친구	-415
적인	-416
▁상처	-417
▁생각해요	-418
▁말해보세요	-419
▁맘	-420
▁장	-421
▁커	-422
이랑	-423
▁축	-424
로운	-425
스러	-426
▁언제	-427
▁뭘	-428
▁입	-429
▁맛있	-430
▁어떨	-431
▁여행	-432
▁충분	-433
▁좋겠어요	-434
다가	-435
하죠	-436
▁무슨	-437
▁어떤	-438
▁있었	-439
▁앞	-440
▁엄	-441
▁용	-442
▁학	-443
▁있으면	-444
▁친구가	-445
▁외	-446
▁최	-447
이었	-448
텐데	-449
▁그냥	-450
▁대화	-451
▁카톡	-452
▁할까	-453
▁함께	-454
▁2	-455
▁구	-456
인지	-457
▁않는	-458
▁사람은	-459
▁이렇게	-460
▁발	-461
부터	-462
▁나만	-463
▁물어	-464
▁안돼	-465
▁3	-466
▁놓	-467
▁슬	-468
▁싸	-469
▁요	-470
▁내일	-471
▁오래	-472
▁헤어졌	-473
▁약	-474
하네	-475
▁누구	-476
▁않을	-477
▁표현	-478
▁몰라요	-479
▁힘드네	-480
▁머리	-481
▁이해	-482
▁궁	-483
▁열	-484
▁점	-485
라도	-486
▁여친	-487
▁전화	-488
겠지만	-489
▁자신을	-490
▁과	-491
가는	-492
▁사랑은	-493
▁길	-494
▁설	-495
리고	-496
▁결정	-497
▁궁금	-498
▁많아	-499
▁운동	-500
▁이유	-501
▁하면	-502
▁됐	-503
▁사람을	-504
▁새로운	-505
▁듯	-506
▁별	-507
▁호	-508
기도	-509
트레	-510
▁선택	-511
▁아프	-512
▁어디	-513
▁한달	-514
▁어떨까요	-515
▁늦	-516
▁단	-517
▁즐	-518
▁처	-519
▁돌아	-520
▁부담	-521
▁썸남	-522
▁스트레	-523
▁있는데	-524
▁생각해보세요	-525
▁복	-526
했던	-527
▁안되	-528
▁주세요	-529
▁깨	-530
▁치	-531
어도	-532
▁미련	-533
▁생겼	-534
▁해도	-535
▁잡	-536
▁타는	-537
▁회사	-538
▁나한테	-539
▁죽	-540
▁노력	-541
▁말고	-542
▁유	-543
▁챙	-544
▁첫	-545
개월	-546
었어	-547
해주	-548
▁보내	-549
▁직접	-550
▁아니에요	-551
거나	-552
나봐	-553
▁가고	-554
▁다가	-555
▁따라	-556
▁만큼	-557
▁순	-558
▁질	-559
▁그만	-560
▁때문	-561
▁않아	-562
▁인연	-563
▁지나	-564
았는데	-565
▁생각나	-566
▁생각이	-567
▁연락이	-568
▁좋겠네요	-569
▁갈	-570
▁막	-571
▁번	-572
▁와	-573
▁휴	-574
처럼	-575
▁그러	-576
▁싶은	-577
▁어떡	-578
▁생각을	-579
▁벌	-580
움이	-581
이나	-582
▁만날	-583
▁않았	-584
▁이젠	-585
▁재미	-586
▁경	-587
▁멋	-588
▁항	-589
군요	-590
▁그게	-591
▁소개	-592
▁어려	-593
▁항상	-594
으세요	-595
▁같은데	-596
▁괜찮아	-597
▁신경쓰	-598
나봅니다	-599
▁스트레스	-600
▁갑	-601
가요	-602
해지	-603
▁남친	-604
▁쉽지	-605
▁인생	-606
▁잘못	-607
▁저는	-608
▁그렇게	-609
▁마음에	-610
▁이별을	-611
▁짝남이	-612
▁완	-613
▁같은	-614
▁문제	-615
▁아파	-616
▁조심	-617
적으로	-618
▁허	-619
기를	-620
보고	-621
▁노래	-622
▁처음	-623
했는데	-624
▁바라요	-625
▁좋겠다	-626
인가봐요	-627
▁모르겠어	-628
▁몸	-629
▁봐	-630
▁붙	-631
거라	-632
어나	-633
▁느낌	-634
▁상황	-635
▁어때	-636
하네요	-637
하는데	-638
▁난	-639
하다	-640
▁때가	-641
▁우리	-642
리세요	-643
려보세요	-644
▁볼	-645
는지	-646
졌어	-647
▁나이	-648
▁달라	-649
▁만났	-650
▁변화	-651
▁축하	-652
▁중요한	-653
▁찾아보세요	-654
▁개	-655
▁꼭	-656
▁넘	-657
▁덜	-658
▁목	-659
▁손	-660
▁웃	-661
▁천	-662
▁크	-663
스럽	-664
습관	-665
▁확실	-666
▁사랑을	-667
▁결국	-668
▁답답	-669
▁위로	-670
▁챙겨	-671
▁화장	-672
▁이별은	-673
▁가보세요	-674
▁빠	-675
▁큰	-676
▁가는	-677
▁기대	-678
▁나는	-679
▁다음	-680
▁말을	-681
▁추억	-682
▁현실	-683
▁생각해	-684
▁괜찮아요	-685
▁포	-686
▁말씀	-687
▁사이	-688
▁세상	-689
▁영화	-690
▁요즘	-691
▁잊어	-692
▁힘내	-693
▁좋겠어	-694
▁충분히	-695
▁절	-696
▁친	-697
▁그렇	-698
▁대화를	-699
▁도움이	-700
▁사랑한	-701
▁태	-702
▁환	-703
▁흘	-704
감이	-705
는거	-706
만에	-707
심히	-708
지막	-709
지요	-710
▁의미	-711
▁있죠	-712
▁여자애	-713
▁열심히	-714
▁물어보세요	-715
▁뭔	-716
▁풀	-717
걸까	-718
동안	-719
싶어	-720
았어	-721
이네	-722
▁가져	-723
▁가지	-724
▁않은	-725
▁언젠	-726
▁추천	-727
▁확인	-728
▁마음의	-729
▁마지막	-730
▁아직도	-731
▁연락을	-732
▁좋을까	-733
▁밥	-734
▁종	-735
▁청	-736
것도	-737
▁말해	-738
▁먹어	-739
▁아침	-740
▁얼른	-741
▁정신	-742
▁집에	-743
이라도	-744
▁말아요	-745
▁싶은데	-746
▁식	-747
▁짜	-748
보면	-749
▁가슴	-750
▁건강	-751
▁관계	-752
▁나쁜	-753
▁만남	-754
▁부모	-755
▁습관	-756
▁어제	-757
▁때문에	-758
▁사랑의	-759
▁상대방	-760
▁시간을	-761
▁오늘도	-762
▁연락해보세요	-763
▁뿐	-764
▁키	-765
▁평	-766
라면	-767
사람	-768
워요	-769
일까	-770
▁되었	-771
▁매일	-772
▁짝녀가	-773
▁헤어짐	-774
으니까요	-775
한가봐요	-776
▁금	-777
▁된	-778
▁몇	-779
▁솔	-780
▁울	-781
▁프	-782
▁핸	-783
▁가장	-784
▁귀찮	-785
▁그리	-786
▁다르	-787
▁살고	-788
▁어느	-789
▁완전	-790
▁재회	-791
▁남자애	-792
▁당신의	-793
▁부모님	-794
▁조금만	-795
했나봐요	-796
▁있나봐요	-797
▁긴	-798
▁빨	-799
▁온	-800
▁졸	-801
▁티	-802
자기	-803
▁나가	-804
▁떨어	-805
▁바람	-806
▁아닐	-807
▁제일	-808
▁커피	-809
▁핸드	-810
릴게요	-811
▁조금씩	-812
▁해볼까	-813
▁헤어지고	-814
▁딱	-815
▁잔	-816
▁착	-817
감을	-818
신이	-819
▁대한	-820
▁못하	-821
▁알려	-822
▁얼마	-823
▁이런	-824
▁진심	-825
하면서	-826
▁남자가	-827
▁사람들	-828
▁오세요	-829
▁좋아하	-830
▁로	-831
▁작	-832
▁존	-833
▁통	-834
더니	-835
리가	-836
한지	-837
▁같애	-838
▁거라	-839
▁많았	-840
▁모든	-841
▁성공	-842
▁순간	-843
▁자연	-844
▁잘할	-845
▁그래도	-846
▁핸드폰	-847
▁글	-848
▁꾸	-849
▁초	-850
▁파	-851
스로	-852
▁맞는	-853
▁살아	-854
▁엄마	-855
▁연습	-856
▁인정	-857
▁주말	-858
▁한번	-859
스러운	-860
▁기다리	-861
▁이별이	-862
▁자신의	-863
▁사람이랑	-864
▁중요해요	-865
▁조심하세요	-866
▁망	-867
폭풍	-868
▁되는	-869
▁사진	-870
▁엄청	-871
▁없을	-872
▁갑자기	-873
▁모르는	-874
▁합니다	-875
▁했는데	-876
▁사람들이	-877
▁알았는데	-878
▁강	-879
▁네	-880
수록	-881
적이	-882
지지	-883
▁가끔	-884
▁복잡	-885
▁얼굴	-886
▁없네	-887
▁예뻐	-888
▁예의	-889
▁왔어	-890
▁잊혀	-891
▁재밌	-892
▁스스로	-893
▁여자가	-894
▁좋아할	-895
▁필요한	-896
하겠어요	-897
▁갖	-898
▁야	-899
▁욕	-900
▁음	-901
▁짧	-902
▁탈	-903
▁날씨	-904
▁남편	-905
▁모두	-906
▁상관	-907
▁쉬운	-908
▁자주	-909
▁지내	-910
달라고	-911
마세요	-912
▁만나고	-913
▁소개팅	-914
▁정리가	-915
▁짝남한테	-916
▁5	-917
▁극	-918
▁면	-919
같은	-920
왔어	-921
▁떠나	-922
▁마시	-923
▁뭘까	-924
▁보는	-925
▁보이	-926
▁알바	-927
▁저랑	-928
었는데	-929
▁기분이	-930
▁당신이	-931
▁사람한테	-932
▁끊	-933
▁듣	-934
▁옷	-935
▁흐	-936
거리	-937
기로	-938
다니	-939
력이	-940
만큼	-941
없이	-942
▁눈물	-943
▁되나	-944
▁무서	-945
▁무시	-946
▁실수	-947
▁아픈	-948
▁짜증	-949
▁피곤	-950
▁싶어요	-951
▁어떡해	-952
▁연락해	-953
▁있다면	-954
▁잘하는	-955
▁후폭풍	-956
▁생각보다	-957
▁모르겠어요	-958
▁4	-959
▁견	-960
▁꽃	-961
▁둘	-962
▁똑	-963
▁월	-964
▁줘	-965
가고	-966
건가	-967
려요	-968
쁘게	-969
해질	-970
▁나와	-971
▁도와	-972
▁별로	-973
▁아픔	-974
▁정도	-975
▁기다려	-976
▁만들어	-977
▁오늘은	-978
▁지금도	-979
▁받아들이	-980
▁본	-981
▁봄	-982
▁코	-983
▁흔	-984
일째	-985
지가	-986
천히	-987
해줘	-988
▁가족	-989
▁걸까	-990
▁극복	-991
▁끝나	-992
▁모습	-993
▁뭐가	-994
▁붙잡	-995
▁빨리	-996
▁사는	-997
▁솔직	-998
▁지켜	-999
▁차단	-1000
▁학교	-1001
▁괜찮은	-1002
▁사랑에	-1003
▁잘하고	-1004
▁천천히	-1005
▁친구랑	-1006
▁6	-1007
▁갔	-1008
▁뒤	-1009
▁밤	-1010
▁양	-1011
▁은	-1012
▁출	-1013
같아	-1014
마다	-1015
시간	-1016
▁감기	-1017
▁것이	-1018
▁그분	-1019
▁다녀	-1020
▁따뜻	-1021
▁마주	-1022
▁벌써	-1023
▁보여	-1024
▁설레	-1025
▁자기	-1026
▁점점	-1027
▁환승	-1028
기까지	-1029
▁맛있게	-1030
▁인연이	-1031
▁확신이	-1032
▁빌	-1033
▁익	-1034
기는	-1035
이면	-1036
주는	-1037
▁끝났	-1038
▁내려	-1039
▁두려	-1040
▁만난	-1041
▁살펴	-1042
▁아이	-1043
▁운명	-1044
▁직장	-1045
▁하죠	-1046
▁힘이	-1047
겠지요	-1048
▁다가가	-1049
▁당신을	-1050
▁사람도	-1051
▁사세요	-1052
▁자신이	-1053
▁하는데	-1054
드릴게요	-1055
▁담	-1056
▁병	-1057
▁책	-1058
거야	-1059
라는	-1060
하나	-1061
▁날이	-1062
▁놓아	-1063
▁배우	-1064
▁봐요	-1065
▁잠시	-1066
▁주변	-1067
▁행동	-1068
▁이유가	-1069
▁첫사랑	-1070
▁하나씩	-1071
▁힘들었	-1072
하겠네요	-1073
▁연락하고	-1074
▁힘내세요	-1075
▁군	-1076
▁능	-1077
▁멀	-1078
▁베	-1079
▁응	-1080
▁찍	-1081
리지	-1082
어가	-1083
이별	-1084
있는	-1085
▁게임	-1086
▁나서	-1087
▁눈을	-1088
▁되길	-1089
▁성격	-1090
▁익숙	-1091
▁일찍	-1092
스러워	-1093
▁믿어요	-1094
▁사귀고	-1095
▁아닌데	-1096
▁언젠간	-1097
▁친구들	-1098
▁많았어요	-1099
▁뿐이에요	-1100
▁서로에게	-1101
▁신경쓰지	-1102
▁괴	-1103
▁교	-1104
▁맨	-1105
▁메	-1106
▁얘	-1107
▁에	-1108
로워	-1109
▁나도	-1110
▁나을	-1111
▁놀러	-1112
▁도전	-1113
▁마련	-1114
▁무엇	-1115
▁받고	-1116
▁스타	-1117
▁슬픈	-1118
▁않죠	-1119
▁있나	-1120
▁즐거	-1121
▁지났	-1122
▁집착	-1123
다보면	-1124
▁힘들다	-1125
▁해주세요	-1126
▁깊	-1127
▁명	-1128
남친	-1129
래도	-1130
에도	-1131
여친	-1132
▁가서	-1133
▁거죠	-1134
▁관리	-1135
▁나아	-1136
▁나오	-1137
▁느껴	-1138
▁아는	-1139
▁안녕	-1140
▁오랜	-1141
▁이겨	-1142
▁자존	-1143
▁주무	-1144
▁후련	-1145
▁만나는	-1146
▁행복해	-1147
▁힘들게	-1148
▁있었나봐요	-1149
▁곧	-1150
▁법	-1151
▁삶	-1152
▁척	-1153
▁헷	-1154
생활	-1155
어야	-1156
이는	-1157
하길	-1158
▁거짓	-1159
▁끝이	-1160
▁다행	-1161
▁말이	-1162
▁뭐야	-1163
▁알게	-1164
▁여유	-1165
▁연인	-1166
▁용기	-1167
▁우울	-1168
▁위해	-1169
▁잊지	-1170
▁자체	-1171
▁최고	-1172
▁카페	-1173
▁포기	-1174
▁헷갈	-1175
이었을	-1176
▁생각할	-1177
▁원하는	-1178
▁이상형	-1179
▁일어나	-1180
▁좋아해	-1181
▁못하겠어	-1182
▁아무것도	-1183
▁아무래도	-1184
▁이별한지	-1185
▁낫	-1186
▁봤	-1187
▁접	-1188
▁향	-1189
르고	-1190
사를	-1191
여행	-1192
정이	-1193
중에	-1194
지고	-1195
▁꿈에	-1196
▁눈이	-1197
▁되지	-1198
▁보면	-1199
▁부족	-1200
▁비싸	-1201
▁소중	-1202
▁썸타	-1203
▁없이	-1204
▁응원	-1205
▁전에	-1206
▁했어	-1207
했어요	-1208
▁거짓말	-1209
▁곳으로	-1210
▁귀찮아	-1211
▁먹으면	-1212
▁보고싶	-1213
▁여친이	-1214
▁이별후	-1215
▁지금은	-1216
여보세요	-1217
▁먹어야지	-1218
▁사랑했던	-1219
▁주무세요	-1220
▁까	-1221
▁빼	-1222
▁읽	-1223
▁증	-1224
버렸	-1225
져요	-1226
한데	-1227
▁금방	-1228
▁늦지	-1229
▁다를	-1230
▁데려	-1231
▁미안	-1232
▁보통	-1233
▁부러	-1234
▁생일	-1235
▁싸우	-1236
▁없죠	-1237
▁죽을	-1238
▁그녀를	-1239
▁나중에	-1240
▁많아요	-1241
▁사귀는	-1242
▁싶네요	-1243
▁아니라	-1244
▁않아도	-1245
▁예의가	-1246
▁전남친	-1247
▁친구를	-1248
▁필요해	-1249
었나봐요	-1250
▁괜찮을까	-1251
▁좋아하게	-1252
▁좋아하면	-1253
▁필요해요	-1254
▁가져보세요	-1255
▁냉	-1256
▁벗	-1257
▁숨	-1258
▁써	-1259
▁쓸	-1260
더라	-1261
리를	-1262
사친	-1263
야죠	-1264
움을	-1265
▁건지	-1266
▁고생	-1267
▁대로	-1268
▁맨날	-1269
▁미리	-1270
▁받는	-1271
▁부분	-1272
▁소식	-1273
▁애가	-1274
▁어렵	-1275
▁우산	-1276
▁월급	-1277
▁일을	-1278
▁잊는	-1279
▁작은	-1280
▁잠이	-1281
▁주는	-1282
▁중에	-1283
▁진정	-1284
▁충전	-1285
스럽게	-1286
이라면	-1287
해주는	-1288
했으면	-1289
▁감정을	-1290
▁남편이	-1291
▁당신은	-1292
▁때까지	-1293
▁만나지	-1294
▁만났어	-1295
▁없네요	-1296
▁이별의	-1297
▁전여친	-1298
겠습니다	-1299
▁중요하지	-1300
▁짝녀한테	-1301
▁친구한테	-1302
▁살펴보세요	-1303
▁확인해보세요	-1304
▁근	-1305
▁높	-1306
▁산	-1307
▁폰	-1308
건지	-1309
대요	-1310
밖에	-1311
쇼핑	-1312
아서	-1313
으니	-1314
이가	-1315
장이	-1316
하려	-1317
하시	-1318
▁기회	-1319
▁되어	-1320
▁드는	-1321
▁로맨	-1322
▁바쁜	-1323
▁받을	-1324
▁방학	-1325
▁비밀	-1326
▁생길	-1327
▁쉬고	-1328
▁시험	-1329
▁아름	-1330
▁안나	-1331
▁안해	-1332
▁알고	-1333
▁앞에	-1334
▁약속	-1335
▁자책	-1336
▁잠깐	-1337
▁종교	-1338
▁편이	-1339
▁하늘	-1340
▁흘렀	-1341
야겠다	-1342
하겠죠	-1343
해야지	-1344
▁가세요	-1345
▁관심이	-1346
▁누구나	-1347
▁변화가	-1348
▁언제나	-1349
▁예쁘게	-1350
▁해봐요	-1351
▁확실한	-1352
▁힘들죠	-1353
▁고민이야	-1354
▁남자애가	-1355
▁연락해도	-1356
▁좋아하는데	-1357
▁사랑해주세요	-1358
▁헤어졌습니다	-1359
겠네	-1360
기만	-1361
당히	-1362
들어	-1363
들은	-1364
리게	-1365
하니	-1366
▁가기	-1367
▁꾸준	-1368
▁끝내	-1369
▁돈이	-1370
▁마셔	-1371
▁맞춰	-1372
▁멋진	-1373
▁미치	-1374
▁바로	-1375
▁바쁘	-1376
▁분위	-1377
▁시원	-1378
▁않고	-1379
▁이번	-1380
▁이어	-1381
▁장난	-1382
▁즐기	-1383
▁타고	-1384
▁허전	-1385
이라는	-1386
▁고민이	-1387
▁궁금해	-1388
▁그래요	-1389
▁맛있는	-1390
▁사랑할	-1391
▁생각만	-1392
▁아닌지	-1393
▁알려줘	-1394
▁없다면	-1395
▁재미있	-1396
▁즐거운	-1397
▁같습니다	-1398
▁사랑하고	-1399
▁짝남이랑	-1400
▁힘들어요	-1401
▁골	-1402
▁옆	-1403
▁채	-1404
▁칭	-1405
들을	-1406
디어	-1407
일이	-1408
퇴근	-1409
▁당연	-1410
▁됐어	-1411
▁되네	-1412
▁드라	-1413
▁먹을	-1414
▁바라	-1415
▁바보	-1416
▁보지	-1417
▁쇼핑	-1418
▁스킨	-1419
▁시켜	-1420
▁어울	-1421
▁어쩌	-1422
▁여러	-1423
▁이러	-1424
▁절대	-1425
▁존중	-1426
▁취미	-1427
▁칭찬	-1428
▁해결	-1429
더라고	-1430
잖아요	-1431
줬으면	-1432
▁드디어	-1433
▁못하는	-1434
▁받아들	-1435
▁봅니다	-1436
▁상처받	-1437
▁이제는	-1438
▁있는지	-1439
▁좋겠죠	-1440
▁좋은데	-1441
▁중인데	-1442
▁여자애가	-1443
▁친구들이	-1444
▁힘들겠지만	-1445
▁등	-1446
가를	-1447
줄까	-1448
해져	-1449
▁가면	-1450
▁가야	-1451
▁간다	-1452
▁경우	-1453
▁곳이	-1454
▁동거	-1455
▁때도	-1456
▁마요	-1457
▁문자	-1458
▁뭔가	-1459
▁뭔지	-1460
▁미워	-1461
▁싫다	-1462
▁안경	-1463
▁않길	-1464
▁예민	-1465
▁예쁜	-1466
▁이성	-1467
▁일은	-1468
▁잊고	-1469
▁자격	-1470
▁지쳤	-1471
▁차분	-1472
▁하셨	-1473
▁해서	-1474
▁헤아	-1475
보는게	-1476
해지는	-1477
▁가슴이	-1478
▁괜찮을	-1479
▁두려워	-1480
▁로맨틱	-1481
▁뭐라고	-1482
▁미련이	-1483
▁사람에	-1484
▁사랑해	-1485
▁시간은	-1486
▁어느덧	-1487
▁어려워	-1488
▁짜증나	-1489
더라고요	-1490
신가봐요	-1491
▁거기까지	-1492
▁아닐까요	-1493
▁않는다면	-1494
▁있습니다	-1495
▁자책하지	-1496
▁독	-1497
▁밀	-1498
▁삼	-1499
▁역	-1500
▁택	-1501
▁터	-1502
년이	-1503
받고	-1504
음이	-1505
이밍	-1506
이지	-1507
자리	-1508
전히	-1509
한게	-1510
해졌	-1511
▁10	-1512
▁것을	-1513
▁기본	-1514
▁까먹	-1515
▁나랑	-1516
▁되고	-1517
▁두달	-1518
▁못해	-1519
▁번호	-1520
▁보러	-1521
▁볼까	-1522
▁서운	-1523
▁슬프	-1524
▁썸녀	-1525
▁어쩔	-1526
▁오는	-1527
▁조언	-1528
▁취직	-1529
▁커플	-1530
▁태어	-1531
▁해주	-1532
답니다	-1533
드려요	-1534
▁그대로	-1535
▁그러면	-1536
▁그리고	-1537
▁마음도	-1538
▁마음은	-1539
▁문제가	-1540
▁방법이	-1541
▁안되는	-1542
▁타이밍	-1543
▁헤어져	-1544
가봅니다	-1545
아보세요	-1546
▁물어보는	-1547
▁사랑하면	-1548
▁생각하고	-1549
▁축하해요	-1550
▁다행이에요	-1551
▁받아들이는	-1552
▁부담스러워	-1553
▁자연스러운	-1554
▁좋아하는게	-1555
▁꿨	-1556
▁뜻	-1557
▁멈	-1558
▁멍	-1559
▁쌓	-1560
▁클	-1561
▁특	-1562
▁희	-1563
니가	-1564
덤덤	-1565
때는	-1566
리스	-1567
마스	-1568
보여	-1569
생님	-1570
스크	-1571
식을	-1572
심해	-1573
야할	-1574
연애	-1575
자는	-1576
했다	-1577
▁갖고	-1578
▁군대	-1579
▁귀여	-1580
▁떨려	-1581
▁뭐든	-1582
▁배워	-1583
▁불편	-1584
▁사과	-1585
▁상담	-1586
▁소리	-1587
▁일주	-1588
▁잊을	-1589
▁자유	-1590
▁저를	-1591
▁적응	-1592
▁졸업	-1593
▁집중	-1594
▁최선	-1595
▁흔들	-1596
가세요	-1597
오세요	-1598
▁가지고	-1599
▁같네요	-1600
▁것보다	-1601
▁관심을	-1602
▁꾸준히	-1603
▁능력이	-1604
▁무서워	-1605
▁선생님	-1606
▁썸남이	-1607
▁어려운	-1608
▁용기를	-1609
▁위로해	-1610
▁이상한	-1611
▁잊어버	-1612
▁적당히	-1613
▁준비가	-1614
▁충분한	-1615
▁화장실	-1616
상이에요	-1617
▁기다리고	-1618
▁다음에는	-1619
▁말하세요	-1620
▁사람마다	-1621
▁않았으면	-1622
▁진심으로	-1623
▁헤어졌어	-1624
▁후회하지	-1625
▁사람이네요	-1626
▁힘들겠어요	-1627
▁삭	-1628
▁샀	-1629
냄새	-1630
만의	-1631
시켜	-1632
오네	-1633
치가	-1634
한거	-1635
한다	-1636
함이	-1637
▁고마	-1638
▁그건	-1639
▁끝을	-1640
▁나온	-1641
▁누가	-1642
▁당당	-1643
▁대학	-1644
▁두근	-1645
▁몰랐	-1646
▁몸이	-1647
▁배려	-1648
▁병원	-1649
▁삭제	-1650
▁생기	-1651
▁어색	-1652
▁연예	-1653
▁오빠	-1654
▁원래	-1655
▁위험	-1656
▁이기	-1657
▁일어	-1658
▁잠수	-1659
▁잠을	-1660
▁적극	-1661
▁좋았	-1662
▁질투	-1663
▁집안	-1664
▁청소	-1665
▁출근	-1666
▁키우	-1667
하려고	-1668
▁가야지	-1669
▁감정이	-1670
▁그녀가	-1671
▁그사람	-1672
▁남친이	-1673
▁받았어	-1674
▁사람과	-1675
▁스킨십	-1676
▁스타일	-1677
▁있나요	-1678
▁있네요	-1679
▁저에게	-1680
▁제대로	-1681
▁하는게	-1682
았나봐요	-1683
▁사람에게	-1684
▁않을까요	-1685
▁있겠어요	-1686
▁있잖아요	-1687
▁자신에게	-1688
▁후폭풍이	-1689
▁만나보세요	-1690
▁좋아하는지	-1691
▁각	-1692
▁걷	-1693
▁권	-1694
▁꼬	-1695
▁셀	-1696
▁철	-1697
▁체	-1698
▁톡	-1699
▁투	-1700
▁팔	-1701
가지	-1702
내고	-1703
내서	-1704
년째	-1705
놓고	-1706
려면	-1707
르는	-1708
사가	-1709
시길	-1710
시는	-1711
었다	-1712
이요	-1713
인거	-1714
▁감사	-1715
▁경험	-1716
▁꿈을	-1717
▁나눠	-1718
▁놀이	-1719
▁다이	-1720
▁담배	-1721
▁당황	-1722
▁무너	-1723
▁무뎌	-1724
▁발표	-1725
▁버려	-1726
▁버텨	-1727
▁보냈	-1728
▁본인	-1729
▁쉽게	-1730
▁싫은	-1731
▁안타	-1732
▁애랑	-1733
▁얘기	-1734
▁어플	-1735
▁올려	-1736
▁좋다	-1737
▁좋지	-1738
▁착각	-1739
▁편지	-1740
▁프로	-1741
▁하기	-1742
됩니다	-1743
인가봐	-1744
하다고	-1745
▁데려다	-1746
▁말하는	-1747
▁머리가	-1748
▁사람의	-1749
▁상황을	-1750
▁서로를	-1751
▁성격이	-1752
▁아름다	-1753
▁안하고	-1754
▁연예인	-1755
▁완전히	-1756
▁있어도	-1757
▁좋아한	-1758
▁하나도	-1759
▁해보는	-1760
▁행복한	-1761
▁후회할	-1762
▁되겠네요	-1763
▁만나자고	-1764
▁보고싶어	-1765
▁일이에요	-1766
▁자신감을	-1767
▁그런가봐요	-1768
▁겨	-1769
▁났	-1770
▁늘	-1771
▁판	-1772
고생	-1773
구나	-1774
리면	-1775
만이	-1776
상을	-1777
성이	-1778
시다	-1779
어머	-1780
없는	-1781
었네	-1782
워질	-1783
이길	-1784
장을	-1785
지네	-1786
질까	-1787
▁같네	-1788
▁과정	-1789
▁귀엽	-1790
▁기운	-1791
▁끝은	-1792
▁나타	-1793
▁동생	-1794
▁드시	-1795
▁말도	-1796
▁먹는	-1797
▁바꿔	-1798
▁바빠	-1799
▁발전	-1800
▁부탁	-1801
▁사실	-1802
▁살짝	-1803
▁새벽	-1804
▁생긴	-1805
▁속이	-1806
▁싶지	-1807
▁안됐	-1808
▁우선	-1809
▁위한	-1810
▁인사	-1811
▁일도	-1812
▁있고	-1813
▁점심	-1814
▁존재	-1815
▁주고	-1816
▁차이	-1817
▁피부	-1818
▁해줘	-1819
으면서	-1820
인가요	-1821
▁그리워	-1822
▁기다릴	-1823
▁놀아요	-1824
▁눈물이	-1825
▁돌아오	-1826
▁맘고생	-1827
▁못하고	-1828
▁무엇이	-1829
▁아무리	-1830
▁안들어	-1831
▁연습을	-1832
▁한동안	-1833
▁호감이	-1834
▁혼자가	-1835
▁힘들지	-1836
리스마스	-1837
했습니다	-1838
▁만나세요	-1839
▁놓아주세요	-1840
▁생각하세요	-1841
▁축하드려요	-1842
▁말씀해주세요	-1843
▁시작해보세요	-1844
▁7	-1845
▁깔	-1846
▁꺼	-1847
▁뜨	-1848
▁리	-1849
▁센	-1850
▁침	-1851
▁형	-1852
나는	-1853
냐고	-1854
력을	-1855
말고	-1856
봐도	-1857
상이	-1858
어트	-1859
었을	-1860
웨딩	-1861
음을	-1862
이다	-1863
줬어	-1864
▁가치	-1865
▁갈까	-1866
▁걸로	-1867
▁계획	-1868
▁고쳐	-1869
▁괜히	-1870
▁괴롭	-1871
▁그랬	-1872
▁그럼	-1873
▁다니	-1874
▁듣고	-1875
▁따로	-1876
▁떠난	-1877
▁면접	-1878
▁목소	-1879
▁못한	-1880
▁무섭	-1881
▁바뀌	-1882
▁받지	-1883
▁배고	-1884
▁버스	-1885
▁비가	-1886
▁살까	-1887
▁속상	-1888
▁쉬는	-1889
▁쓰레	-1890
▁애매	-1891
▁없나	-1892
▁없다	-1893
▁없애	-1894
▁우연	-1895
▁의지	-1896
▁이름	-1897
▁이용	-1898
▁자고	-1899
▁저녁	-1900
▁주면	-1901
▁지우	-1902
▁지쳐	-1903
▁퇴근	-1904
▁프사	-1905
▁피해	-1906
▁학원	-1907
▁한잔	-1908
▁했던	-1909
다가도	-1910
두세요	-1911
드세요	-1912
하다면	-1913
▁가자고	-1914
▁남자를	-1915
▁되는데	-1916
▁만나서	-1917
▁아는데	-1918
▁외로워	-1919
▁이상해	-1920
▁지나갈	-1921
▁추억이	-1922
▁친구로	-1923
▁괜찮아졌	-1924
▁괜찮아질	-1925
▁다이어트	-1926
▁생각하는	-1927
▁연락하면	-1928
▁오랜만에	-1929
▁좋을텐데	-1930
하지마세요	-1931
▁모르겠네요	-1932
▁사랑하는데	-1933
▁사랑한다고	-1934
▁여자친구와	-1935
▁자연스럽게	-1936
▁크리스마스	-1937
▁현상이에요	-1938
▁말씀해보세요	-1939
▁이야기해보세요	-1940
▁낭	-1941
▁뒷	-1942
▁뿌	-1943
▁억	-1944
▁업	-1945
▁트	-1946
▁페	-1947
느라	-1948
됐어	-1949
리기	-1950
서관	-1951
소한	-1952
어서	-1953
였어	-1954
주가	-1955
지면	-1956
치고	-1957
치는	-1958
했을	-1959
▁가벼	-1960
▁간절	-1961
▁거야	-1962
▁거절	-1963
▁건가	-1964
▁견디	-1965
▁꿈이	-1966
▁냄새	-1967
▁누군	-1968
▁눈에	-1969
▁느끼	-1970
▁대해	-1971
▁돈을	-1972
▁되면	-1973
▁많죠	-1974
▁미래	-1975
▁바뀔	-1976
▁불안	-1977
▁비교	-1978
▁사라	-1979
▁소화	-1980
▁신혼	-1981
▁심해	-1982
▁안와	-1983
▁안좋	-1984
▁영원	-1985
▁오해	-1986
▁이거	-1987
▁이사	-1988
▁이혼	-1989
▁인형	-1990
▁일상	-1991
▁있지	-1992
▁주지	-1993
▁취업	-1994
일지도	-1995
하니까	-1996
해봐요	-1997
해지면	-1998
▁결혼식	-1999
▁나이가	-2000
▁날씨가	-2001
▁내일은	-2002
▁도서관	-2003
▁될까요	-2004
▁만나면	-2005
▁뭐하지	-2006
▁분위기	-2007
▁붙잡고	-2008
▁상처를	-2009
▁선택일	-2010
▁소중한	-2011
▁쉬세요	-2012
▁안해도	-2013
▁앞에서	-2014
▁앞으로	-2015
▁어쩌지	-2016
▁없는데	-2017
▁여유를	-2018
▁연락처	-2019
▁일주일	-2020
▁장거리	-2021
▁필요할	-2022
▁했으면	-2023
▁호감을	-2024
▁확실히	-2025
을거예요	-2026
▁기다리는	-2027
▁만났는데	-2028
▁부담스럽	-2029
▁생각나는	-2030
▁않았어요	-2031
▁연락하지	-2032
▁좋아할까	-2033
▁궁금하네요	-2034
▁사람이에요	-2035
▁지켜보세요	-2036
▁짝사랑하는	-2037
▁들어드릴게요	-2038
▁8	-2039
▁끄	-2040
▁됨	-2041
▁든	-2042
▁딸	-2043
▁뻔	-2044
▁썼	-2045
▁쐬	-2046
▁염	-2047
▁잤	-2048
▁짐	-2049
▁찌	-2050
▁틀	-2051
▁헛	-2052
간이	-2053
거려	-2054
러가	-2055
세먼	-2056
심이	-2057
었던	-2058
여자	-2059
요일	-2060
으시	-2061
인듯	-2062
주지	-2063
하셨	-2064
할지	-2065
▁가까	-2066
▁갑작	-2067
▁개인	-2068
▁거울	-2069
▁결과	-2070
▁기념	-2071
▁깔끔	-2072
▁나의	-2073
▁내는	-2074
▁느려	-2075
▁대단	-2076
▁되죠	-2077
▁때는	-2078
▁멋있	-2079
▁못할	-2080
▁미친	-2081
▁반복	-2082
▁불러	-2083
▁비슷	-2084
▁사귈	-2085
▁슬퍼	-2086
▁썸이	-2087
▁않네	-2088
▁야근	-2089
▁역시	-2090
▁옆에	-2091
▁완벽	-2092
▁왔다	-2093
▁잡고	-2094
▁조급	-2095
▁졸려	-2096
▁차별	-2097
▁치과	-2098
▁크게	-2099
▁호감	-2100
듭니다	-2101
면서도	-2102
으려고	-2103
적이든	-2104
▁가능할	-2105
▁걱정돼	-2106
▁걱정되	-2107
▁그녀의	-2108
▁꿈에서	-2109
▁달라고	-2110
▁때네요	-2111
▁마스크	-2112
▁무서운	-2113
▁벗어나	-2114
▁상황이	-2115
▁시작이	-2116
▁쓰레기	-2117
▁아무도	-2118
▁않으면	-2119
▁어디서	-2120
▁어때요	-2121
▁얼마나	-2122
▁엄마가	-2123
▁연애는	-2124
▁예뻐요	-2125
▁왔는데	-2126
▁저도요	-2127
▁집안일	-2128
▁집에서	-2129
▁타는데	-2130
▁편하게	-2131
▁고민하고	-2132
▁사랑해서	-2133
▁썸남한테	-2134
▁어떡하지	-2135
▁연락하는	-2136
▁좋아하고	-2137
▁친구들과	-2138
▁필요하죠	-2139
▁하다보면	-2140
▁했습니다	-2141
▁헤어져야	-2142
▁헷갈리게	-2143
▁흘렀네요	-2144
▁남자친구의	-2145
▁알아보세요	-2146
▁여자친구의	-2147
▁이야기네요	-2148
▁있으니까요	-2149
▁전해보세요	-2150
▁지쳤나봐요	-2151
▁노력해보세요	-2152
▁이해해주세요	-2153
▁잊어버리세요	-2154
▁갚	-2155
▁긍	-2156
▁농	-2157
▁움	-2158
▁죄	-2159
▁창	-2160
▁춥	-2161
▁패	-2162
▁푹	-2163
▁혹	-2164
같이	-2165
남자	-2166
될까	-2167
러워	-2168
려도	-2169
머리	-2170
먹고	-2171
방법	-2172
싶다	-2173
어진	-2174
오는	-2175
이고	-2176
주고	-2177
준비	-2178
할때	-2179
호흡	-2180
▁거지	-2181
▁견뎌	-2182
▁고통	-2183
▁공허	-2184
▁권태	-2185
▁긍정	-2186
▁기울	-2187
▁깨달	-2188
▁꿨어	-2189
▁나올	-2190
▁남았	-2191
▁남을	-2192
▁남의	-2193
▁놀고	-2194
▁놀아	-2195
▁동물	-2196
▁라면	-2197
▁마무	-2198
▁만드	-2199
▁말투	-2200
▁말할	-2201
▁몰라	-2202
▁문득	-2203
▁보일	-2204
▁부럽	-2205
▁분명	-2206
▁사고	-2207
▁사귄	-2208
▁사야	-2209
▁사회	-2210
▁샀어	-2211
▁상태	-2212
▁생활	-2213
▁선톡	-2214
▁시계	-2215
▁실망	-2216
▁쓰는	-2217
▁아까	-2218
▁않게	-2219
▁알았	-2220
▁야경	-2221
▁어서	-2222
▁어장	-2223
▁외로	-2224
▁유지	-2225
▁은근	-2226
▁이건	-2227
▁이럴	-2228
▁이루	-2229
▁인간	-2230
▁전부	-2231
▁정확	-2232
▁줘도	-2233
▁지워	-2234
▁차가	-2235
▁추워	-2236
▁친한	-2237
▁택시	-2238
▁텐데	-2239
▁판단	-2240
▁평소	-2241
▁혹시	-2242
▁화가	-2243
▁희망	-2244
립니다	-2245
었어요	-2246
으니까	-2247
한다면	-2248
해볼까	-2249
▁결정을	-2250
▁그동안	-2251
▁그래서	-2252
▁기념일	-2253
▁남사친	-2254
▁당신도	-2255
▁먹을까	-2256
▁무덤덤	-2257
▁미세먼	-2258
▁변화를	-2259
▁상처가	-2260
▁생겼어	-2261
▁서로의	-2262
▁실감이	-2263
▁심호흡	-2264
▁썸인지	-2265
▁썸타는	-2266
▁아침에	-2267
▁안타깝	-2268
▁언제쯤	-2269
▁없다고	-2270
▁여사친	-2271
▁여행을	-2272
▁연애를	-2273
▁용기가	-2274
▁이유를	-2275
▁인생은	-2276
▁있는게	-2277
▁있지만	-2278
▁잊어야	-2279
▁잘해줘	-2280
▁저한테	-2281
▁지나갔	-2282
▁지내고	-2283
▁짝녀랑	-2284
▁찾아올	-2285
▁필요는	-2286
▁할텐데	-2287
▁해야지	-2288
▁후회가	-2289
였나봐요	-2290
▁가지세요	-2291
▁남자들은	-2292
▁당당하게	-2293
▁만나는게	-2294
▁받아들여	-2295
▁버리세요	-2296
▁사람으로	-2297
▁사랑하지	-2298
▁상대방을	-2299
▁생각나네	-2300
▁생각하지	-2301
▁아니라고	-2302
▁여기까지	-2303
▁이야기를	-2304
▁좋아해도	-2305
▁즐기세요	-2306
▁행복하게	-2307
▁회사에서	-2308
▁결정이었을	-2309
▁무시하세요	-2310
▁않으니까요	-2311
▁여자친구랑	-2312
▁헤어졌는데	-2313
▁기다려보세요	-2314
▁만들어보세요	-2315
▁걔	-2316
▁낮	-2317
▁넣	-2318
▁놔	-2319
▁딴	-2320
▁쓴	-2321
▁씻	-2322
▁컨	-2323
▁컴	-2324
거를	-2325
나게	-2326
냐에	-2327
되는	-2328
두고	-2329
디션	-2330
렸어	-2331
리네	-2332
릴까	-2333
스타	-2334
점을	-2335
지로	-2336
치지	-2337
해줄	-2338
했네	-2339
▁가요	-2340
▁거니	-2341
▁계절	-2342
▁공통	-2343
▁그것	-2344
▁길이	-2345
▁깊은	-2346
▁끝난	-2347
▁나왔	-2348
▁나은	-2349
▁놓고	-2350
▁다들	-2351
▁다양	-2352
▁더워	-2353
▁동안	-2354
▁두고	-2355
▁때론	-2356
▁때를	-2357
▁마다	-2358
▁막말	-2359
▁만든	-2360
▁먹었	-2361
▁멈추	-2362
▁반대	-2363
▁봐도	-2364
▁소문	-2365
▁소원	-2366
▁수가	-2367
▁수록	-2368
▁스키	-2369
▁신고	-2370
▁쐬고	-2371
▁아예	-2372
▁안전	-2373
▁울적	-2374
▁원망	-2375
▁음악	-2376
▁이게	-2377
▁있길	-2378
▁자세	-2379
▁조절	-2380
▁중국	-2381
▁지난	-2382
▁진급	-2383
▁짧은	-2384
▁채워	-2385
▁축구	-2386
▁취향	-2387
▁클럽	-2388
▁통보	-2389
▁편한	-2390
▁편할	-2391
▁평생	-2392
▁피할	-2393
▁하게	-2394
▁현금	-2395
▁현재	-2396
버렸어	-2397
일까요	-2398
해주고	-2399
▁가치관	-2400
▁감정에	-2401
▁거겠죠	-2402
▁그녀는	-2403
▁나왔어	-2404
▁됐으면	-2405
▁되기도	-2406
▁됩니다	-2407
▁드라마	-2408
▁똑같은	-2409
▁만난지	-2410
▁많은데	-2411
▁모르고	-2412
▁미안해	-2413
▁방학이	-2414
▁부러워	-2415
▁상대를	-2416
▁생각하	-2417
▁선물이	-2418
▁선택을	-2419
▁시어머	-2420
▁아니면	-2421
▁아프네	-2422
▁안돼요	-2423
▁안하는	-2424
▁애한테	-2425
▁언젠가	-2426
▁없어서	-2427
▁없으면	-2428
▁연락은	-2429
▁운동을	-2430
▁위로가	-2431
▁이겨낼	-2432
▁있겠죠	-2433
▁있겠지	-2434
▁잊혀지	-2435
▁자신에	-2436
▁좋지만	-2437
▁진정한	-2438
▁최고죠	-2439
▁하면서	-2440
▁한달이	-2441
▁행복할	-2442
▁가능성이	-2443
▁달라지는	-2444
▁떨어졌어	-2445
▁말이에요	-2446
▁부러워요	-2447
▁상대방이	-2448
▁생겼는데	-2449
▁아니라면	-2450
▁안됐는데	-2451
▁알면서도	-2452
▁용기내서	-2453
▁이성으로	-2454
▁자존감이	-2455
▁좋아하던	-2456
▁지금처럼	-2457
▁짝사랑이	-2458
▁충분해요	-2459
▁한동안은	-2460
▁힘들어서	-2461
▁힘들었을	-2462
▁방법이에요	-2463
▁부담스럽지	-2464
▁사람들에게	-2465
▁사랑한다면	-2466
▁여자애한테	-2467
▁응원합니다	-2468
▁있을거예요	-2469
▁적극적으로	-2470
▁정리하는게	-2471
▁헤어지자고	-2472
▁준비해보세요	-2473
▁곁	-2474
▁김	-2475
▁깎	-2476
▁넌	-2477
▁뛰	-2478
▁맥	-2479
▁밝	-2480
▁악	-2481
▁으	-2482
▁잃	-2483
▁짓	-2484
▁째	-2485
▁찬	-2486
▁케	-2487
▁합	-2488
▁헬	-2489
가네	-2490
가면	-2491
가봐	-2492
간의	-2493
겼어	-2494
데요	-2495
배가	-2496
부를	-2497
수도	-2498
시면	-2499
식이	-2500
아야	-2501
아지	-2502
없어	-2503
울까	-2504
웠어	-2505
이팅	-2506
장고	-2507
전에	-2508
전환	-2509
지를	-2510
통보	-2511
하러	-2512
하루	-2513
▁각자	-2514
▁갔다	-2515
▁거의	-2516
▁걸릴	-2517
▁것은	-2518
▁결심	-2519
▁골라	-2520
▁곳에	-2521
▁과일	-2522
▁교회	-2523
▁근처	-2524
▁글을	-2525
▁긴장	-2526
▁나면	-2527
▁나쁘	-2528
▁남겨	-2529
▁늦게	-2530
▁단단	-2531
▁달달	-2532
▁당장	-2533
▁두번	-2534
▁둘이	-2535
▁드네	-2536
▁만족	-2537
▁말까	-2538
▁말은	-2539
▁맥주	-2540
▁무리	-2541
▁바꾸	-2542
▁바꿀	-2543
▁밖에	-2544
▁변덕	-2545
▁분이	-2546
▁불행	-2547
▁사용	-2548
▁산책	-2549
▁상사	-2550
▁새로	-2551
▁설렘	-2552
▁셀프	-2553
▁시기	-2554
▁신청	-2555
▁싶네	-2556
▁쓰고	-2557
▁쓸데	-2558
▁아빠	-2559
▁알면	-2560
▁어린	-2561
▁여기	-2562
▁예쁘	-2563
▁오면	-2564
▁올라	-2565
▁왜이	-2566
▁외국	-2567
▁움직	-2568
▁있네	-2569
▁자리	-2570
▁잘생	-2571
▁잘해	-2572
▁전공	-2573
▁전환	-2574
▁제발	-2575
▁중간	-2576
▁진실	-2577
▁집이	-2578
▁초대	-2579
▁최악	-2580
▁태도	-2581
▁페북	-2582
▁하네	-2583
▁화를	-2584
▁휴가	-2585
더라도	-2586
만으로	-2587
싶은데	-2588
어가네	-2589
을지도	-2590
줄게요	-2591
하거나	-2592
하지만	-2593
▁곳에서	-2594
▁공부는	-2595
▁관계를	-2596
▁그렇지	-2597
▁기회가	-2598
▁끝까지	-2599
▁나이는	-2600
▁남자는	-2601
▁내세요	-2602
▁냉장고	-2603
▁느낌이	-2604
▁따뜻한	-2605
▁떨어져	-2606
▁마무리	-2607
▁모습이	-2608
▁물어보	-2609
▁물어봐	-2610
▁뭐하고	-2611
▁믿음이	-2612
▁부족한	-2613
▁사소한	-2614
▁사이가	-2615
▁상관없	-2616
▁생각에	-2617
▁생각은	-2618
▁생각한	-2619
▁선물을	-2620
▁시원한	-2621
▁썸인데	-2622
▁아니야	-2623
▁여자를	-2624
▁온전히	-2625
▁인기가	-2626
▁있다고	-2627
▁정리할	-2628
▁제자리	-2629
▁좋겠지	-2630
▁지났네	-2631
▁진심을	-2632
▁집들이	-2633
▁차분히	-2634
▁최선의	-2635
▁파이팅	-2636
▁표현해	-2637
셨나봐요	-2638
이었으면	-2639
▁고백해도	-2640
▁그렇지만	-2641
▁기분전환	-2642
▁마음으로	-2643
▁무엇이든	-2644
▁부럽네요	-2645
▁부모님이	-2646
▁사랑으로	-2647
▁썸남이랑	-2648
▁아름다운	-2649
▁아프네요	-2650
▁없나봐요	-2651
▁이별통보	-2652
▁일이네요	-2653
▁좋겠지만	-2654
▁좋아해요	-2655
▁중요하죠	-2656
▁피하세요	-2657
▁하루하루	-2658
▁하셨네요	-2659
▁환승이별	-2660
▁힘들겠지	-2661
▁남자친구와	-2662
▁생각이에요	-2663
▁습관이에요	-2664
▁알려주세요	-2665
▁적어보세요	-2666
▁힘들겠네요	-2667
▁고백해보세요	-2668
▁사용해보세요	-2669
▁필요하겠네요	-2670
▁힘들었겠어요	-2671
▁9	-2672
▁꿀	-2673
▁놈	-2674
▁디	-2675
▁맡	-2676
▁백	-2677
▁벚	-2678
▁블	-2679
▁뽑	-2680
▁숙	-2681
▁싱	-2682
▁콩	-2683
▁푸	-2684
▁핑	-2685
가락	-2686
갈까	-2687
갔어	-2688
규직	-2689
기간	-2690
나면	-2691
달째	-2692
대폰	-2693
도록	-2694
듯이	-2695
래요	-2696
먹기	-2697
무원	-2698
부로	-2699
샤워	-2700
순위	-2701
시락	-2702
았던	-2703
오면	-2704
우면	-2705
유증	-2706
이니	-2707
인이	-2708
장면	-2709
제를	-2710
지게	-2711
포즈	-2712
하던	-2713
혼자	-2714
▁30	-2715
▁간접	-2716
▁겨울	-2717
▁고맙	-2718
▁공시	-2719
▁과거	-2720
▁과식	-2721
▁교양	-2722
▁글로	-2723
▁기술	-2724
▁남아	-2725
▁낫죠	-2726
▁내요	-2727
▁다되	-2728
▁달콤	-2729
▁됐네	-2730
▁떨리	-2731
▁마실	-2732
▁많을	-2733
▁맘에	-2734
▁맘이	-2735
▁맛난	-2736
▁매력	-2737
▁머릿	-2738
▁메뉴	-2739
▁면도	-2740
▁모아	-2741
▁목표	-2742
▁물리	-2743
▁밀당	-2744
▁반지	-2745
▁벚꽃	-2746
▁변명	-2747
▁보기	-2748
▁보니	-2749
▁보험	-2750
▁부딪	-2751
▁부자	-2752
▁빠르	-2753
▁선이	-2754
▁소비	-2755
▁심심	-2756
▁썸의	-2757
▁아껴	-2758
▁아쉬	-2759
▁애정	-2760
▁어찌	-2761
▁오네	-2762
▁오랫	-2763
▁외롭	-2764
▁용돈	-2765
▁용서	-2766
▁이뤄	-2767
▁이불	-2768
▁인기	-2769
▁있게	-2770
▁절약	-2771
▁죽고	-2772
▁중독	-2773
▁지칠	-2774
▁참고	-2775
▁청첩	-2776
▁카드	-2777
▁파혼	-2778
▁편안	-2779
▁풀릴	-2780
▁한다	-2781
▁행운	-2782
▁향수	-2783
▁헬스	-2784
거같아	-2785
된다고	-2786
었으면	-2787
이라고	-2788
이라니	-2789
장에서	-2790
하기는	-2791
하는지	-2792
하다가	-2793
하자고	-2794
할게요	-2795
▁건강에	-2796
▁공무원	-2797
▁관계가	-2798
▁귀여워	-2799
▁극복할	-2800
▁나에게	-2801
▁남자랑	-2802
▁노래방	-2803
▁달라지	-2804
▁도시락	-2805
▁됐는데	-2806
▁드라이	-2807
▁들어가	-2808
▁들어와	-2809
▁모습을	-2810
▁뭐라도	-2811
▁바쁘게	-2812
▁배고파	-2813
▁병원에	-2814
▁보내고	-2815
▁보이고	-2816
▁사귀기	-2817
▁사랑했	-2818
▁살아야	-2819
▁새벽에	-2820
▁선물은	-2821
▁세상에	-2822
▁시간도	-2823
▁시기가	-2824
▁아무렇	-2825
▁아프다	-2826
▁않는데	-2827
▁앞머리	-2828
▁억지로	-2829
▁여자랑	-2830
▁여전히	-2831
▁연애가	-2832
▁우세요	-2833
▁울어도	-2834
▁의사를	-2835
▁인생이	-2836
▁있다는	-2837
▁있어서	-2838
▁있으니	-2839
▁자격이	-2840
▁자신만	-2841
▁전화를	-2842
▁준비를	-2843
▁찾아가	-2844
▁친구의	-2845
▁태어난	-2846
▁표현이	-2847
▁피곤해	-2848
▁혼자만	-2849
▁혼자서	-2850
▁휴대폰	-2851
셔보세요	-2852
시겠어요	-2853
어주세요	-2854
해야할까	-2855
했겠어요	-2856
▁걱정하지	-2857
▁나가세요	-2858
▁내보세요	-2859
▁누군가를	-2860
▁따뜻하게	-2861
▁만나기로	-2862
▁만들어요	-2863
▁맞는걸까	-2864
▁보고싶다	-2865
▁생각하면	-2866
▁솔직하게	-2867
▁스트레칭	-2868
▁싶습니다	-2869
▁않겠지만	-2870
▁없겠네요	-2871
▁여자들은	-2872
▁여자한테	-2873
▁이별에는	-2874
▁잊으세요	-2875
▁잘했어요	-2876
▁점심시간	-2877
▁준비하는	-2878
▁하나봐요	-2879
▁했나봐요	-2880
▁걸어보세요	-2881
▁고백했는데	-2882
▁나눠보세요	-2883
▁남자친구랑	-2884
▁다녀오세요	-2885
▁다르겠지만	-2886
▁돌려보세요	-2887
▁믿어보세요	-2888
▁바쁜가봐요	-2889
▁스스로에게	-2890
▁좋아해주는	-2891
▁지금이라도	-2892
▁친구들이랑	-2893
▁필요하다면	-2894
▁힘든가봅니다	-2895
▁겁	-2896
▁격	-2897
▁급	-2898
▁깜	-2899
▁꼼	-2900
▁끈	-2901
▁넓	-2902
▁녹	-2903
▁닮	-2904
▁땀	-2905
▁띄	-2906
▁잇	-2907
▁찔	-2908
▁쳐	-2909
▁털	-2910
거죠	-2911
까봐	-2912
나고	-2913
나서	-2914
내는	-2915
냈어	-2916
너무	-2917
년의	-2918
다발	-2919
데이	-2920
되면	-2921
든지	-2922
따라	-2923
라리	-2924
라이	-2925
렌타	-2926
려구	-2927
려나	-2928
린다	-2929
받아	-2930
번호	-2931
보내	-2932
보니	-2933
분이	-2934
빼로	-2935
생숭	-2936
어두	-2937
정도	-2938
주려	-2939
지마	-2940
치기	-2941
터리	-2942
테리	-2943
하긴	-2944
하대	-2945
함을	-2946
▁가도	-2947
▁감성	-2948
▁개강	-2949
▁거면	-2950
▁경쟁	-2951
▁곁에	-2952
▁그는	-2953
▁그대	-2954
▁기원	-2955
▁깨끗	-2956
▁남기	-2957
▁내리	-2958
▁노후	-2959
▁놀랐	-2960
▁눈치	-2961
▁늦은	-2962
▁답장	-2963
▁대출	-2964
▁데는	-2965
▁떠오	-2966
▁맛집	-2967
▁맞추	-2968
▁매달	-2969
▁명절	-2970
▁모른	-2971
▁몰래	-2972
▁못잊	-2973
▁무거	-2974
▁반가	-2975
▁받은	-2976
▁밝혀	-2977
▁버릴	-2978
▁별거	-2979
▁보다	-2980
▁봄이	-2981
▁빠를	-2982
▁사업	-2983
▁살기	-2984
▁삶을	-2985
▁생겨	-2986
▁샤워	-2987
▁성장	-2988
▁속에	-2989
▁수다	-2990
▁술마	-2991
▁술을	-2992
▁심경	-2993
▁싱숭	-2994
▁썸은	-2995
▁썸을	-2996
▁애들	-2997
▁어머	-2998
▁업무	-2999
▁없지	-3000
▁에휴	-3001
▁여름	-3002
▁염색	-3003
▁왔네	-3004
▁외모	-3005
▁유부	-3006
▁은연	-3007
▁의외	-3008
▁이미	-3009
▁인내	-3010
▁입을	-3011
▁잘되	-3012
▁장소	-3013
▁중인	-3014
▁지는	-3015
▁참는	-3016
▁콩깍	-3017
▁통해	-3018
▁투자	-3019
▁핑계	-3020
▁하다	-3021
▁하던	-3022
▁해보	-3023
▁회식	-3024
▁회원	-3025
▁휴식	-3026
▁흐르	-3027
갑니다	-3028
기세요	-3029
내세요	-3030
르세요	-3031
셨네요	-3032
시군요	-3033
왔는데	-3034
을거라	-3035
이었길	-3036
졌으면	-3037
줬는데	-3038
하기도	-3039
하느라	-3040
하는거	-3041
하지는	-3042
▁가끔은	-3043
▁가는데	-3044
▁감정의	-3045
▁거리를	-3046
▁결혼은	-3047
▁고민임	-3048
▁고백을	-3049
▁과정이	-3050
▁그만큼	-3051
▁꽃다발	-3052
▁나보다	-3053
▁나을까	-3054
▁나혼자	-3055
▁남자들	-3056
▁내려놓	-3057
▁너에게	-3058
▁노력하	-3059
▁달라진	-3060
▁답답한	-3061
▁답답해	-3062
▁도와줘	-3063
▁도움을	-3064
▁되는지	-3065
▁마시고	-3066
▁말하지	-3067
▁못해요	-3068
▁받으면	-3069
▁발렌타	-3070
▁배우는	-3071
▁보내는	-3072
▁보이지	-3073
▁복잡한	-3074
▁본인의	-3075
▁부분이	-3076
▁빼빼로	-3077
▁사진을	-3078
▁생겼네	-3079
▁솔직한	-3080
▁쉬어도	-3081
▁습관을	-3082
▁않아서	-3083
▁않을까	-3084
▁알아차	-3085
▁없을까	-3086
▁연애에	-3087
▁완벽한	-3088
▁왔으면	-3089
▁외로운	-3090
▁우리는	-3091
▁위로봇	-3092
▁이러지	-3093
▁이별도	-3094
▁이별에	-3095
▁이어나	-3096
▁이유는	-3097
▁이제야	-3098
▁이해가	-3099
▁인생을	-3100
▁일어났	-3101
▁일하는	-3102
▁있지요	-3103
▁자체가	-3104
▁재미가	-3105
▁정리를	-3106
▁정신차	-3107
▁좋으면	-3108
▁주말에	-3109
▁주말이	-3110
▁주변에	-3111
▁차라리	-3112
▁표현을	-3113
▁해주는	-3114
▁행복은	-3115
▁행복을	-3116
▁헤어질	-3117
▁현실을	-3118
▁현재를	-3119
▁회사는	-3120
겨보세요	-3121
▁가능해요	-3122
▁결혼하면	-3123
▁그녀에게	-3124
▁기다리면	-3125
▁기대세요	-3126
▁노력하는	-3127
▁다르겠죠	-3128
▁다음부터	-3129
▁두근거리	-3130
▁로맨틱한	-3131
▁마련이죠	-3132
▁마음대로	-3133
▁바쁘거나	-3134
▁상대에게	-3135
▁슬프네요	-3136
▁싱숭생숭	-3137
▁써보세요	-3138
▁않나봐요	-3139
▁알다가도	-3140
▁어려워요	-3141
▁어울리는	-3142
▁오랫동안	-3143
▁익숙해지	-3144
▁있었으면	-3145
▁있을까요	-3146
▁있을지도	-3147
▁정리하는	-3148
▁좋아했던	-3149
▁지났네요	-3150
▁직장에서	-3151
▁짝사랑은	-3152
▁타이밍이	-3153
▁프로포즈	-3154
▁해야할까	-3155
▁헤아리는	-3156
▁헤어졌네	-3157
▁헤어지면	-3158
▁헤어지지	-3159
▁현실적인	-3160
▁흔들리지	-3161
▁힘듭니다	-3162
으신가봐요	-3163
인가봅니다	-3164
▁감사합니다	-3165
▁고생했어요	-3166
▁골라보세요	-3167
▁되었습니다	-3168
▁드셔보세요	-3169
▁들어보세요	-3170
▁마련이에요	-3171
▁마지막으로	-3172
▁맞았나봐요	-3173
▁스트레스가	-3174
▁시어머니가	-3175
▁아니니까요	-3176
▁있더라고요	-3177
▁조금이라도	-3178
▁다가가보세요	-3179
▁로맨틱하네요	-3180
▁복잡하겠어요	-3181
▁부탁해보세요	-3182
▁여자친구에게	-3183
▁표현해보세요	-3184
▁널	-3185
▁년	-3186
▁늙	-3187
▁땡	-3188
▁봉	-3189
▁섬	-3190
▁씁	-3191
▁얻	-3192
▁옴	-3193
▁왕	-3194
▁왤	-3195
▁웬	-3196
▁젖	-3197
▁짱	-3198
▁폭	-3199
▁효	-3200
각이	-3201
걸로	-3202
겹살	-3203
공평	-3204
난다	-3205
답을	-3206
대한	-3207
도가	-3208
럽게	-3209
려서	-3210
만은	-3211
복이	-3212
부여	-3213
분들	-3214
선을	-3215
셔요	-3216
숙사	-3217
스는	-3218
시원	-3219
었길	-3220
육아	-3221
이스	-3222
있어	-3223
정보	-3224
정을	-3225
제가	-3226
주면	-3227
지기	-3228
쳤어	-3229
통수	-3230
해진	-3231
활동	-3232
히는	-3233
▁가만	-3234
▁간단	-3235
▁감고	-3236
▁같지	-3237
▁걸리	-3238
▁걸어	-3239
▁구멍	-3240
▁귀가	-3241
▁그립	-3242
▁기간	-3243
▁기준	-3244
▁길러	-3245
▁깨요	-3246
▁나지	-3247
▁남은	-3248
▁너도	-3249
▁너를	-3250
▁느낄	-3251
▁다닐	-3252
▁다리	-3253
▁다정	-3254
▁단계	-3255
▁답이	-3256
▁되돌	-3257
▁들고	-3258
▁딸기	-3259
▁똑똑	-3260
▁라고	-3261
▁로또	-3262
▁많지	-3263
▁매너	-3264
▁멀리	-3265
▁멀어	-3266
▁메모	-3267
▁모자	-3268
▁무색	-3269
▁문신	-3270
▁뭐라	-3271
▁바다	-3272
▁반응	-3273
▁받으	-3274
▁보낼	-3275
▁봉사	-3276
▁봤어	-3277
▁비난	-3278
▁비정	-3279
▁비참	-3280
▁빌려	-3281
▁사면	-3282
▁상상	-3283
▁새해	-3284
▁성별	-3285
▁성향	-3286
▁센스	-3287
▁솔로	-3288
▁수는	-3289
▁수면	-3290
▁순수	-3291
▁술이	-3292
▁시키	-3293
▁신뢰	-3294
▁신중	-3295
▁실내	-3296
▁심리	-3297
▁싸워	-3298
▁아플	-3299
▁악몽	-3300
▁애교	-3301
▁어이	-3302
▁에너	-3303
▁여우	-3304
▁연속	-3305
▁왤케	-3306
▁운전	-3307
▁웃을	-3308
▁웬수	-3309
▁은퇴	-3310
▁의심	-3311
▁의욕	-3312
▁이직	-3313
▁인턴	-3314
▁일만	-3315
▁입어	-3316
▁잇몸	-3317
▁있기	-3318
▁자괴	-3319
▁잘지	-3320
▁잤어	-3321
▁적금	-3322
▁정상	-3323
▁주기	-3324
▁지갑	-3325
▁지도	-3326
▁지진	-3327
▁착한	-3328
▁참견	-3329
▁찾는	-3330
▁천재	-3331
▁체육	-3332
▁쳐다	-3333
▁치료	-3334
▁큰일	-3335
▁통화	-3336
▁특별	-3337
▁하시	-3338
▁학생	-3339
▁한거	-3340
▁한숨	-3341
▁해봤	-3342
▁해외	-3343
▁허무	-3344
▁헛헛	-3345
▁후가	-3346
▁후에	-3347
가는데	-3348
개월이	-3349
개월째	-3350
겼는데	-3351
다는건	-3352
더라구	-3353
드리고	-3354
버렸네	-3355
봅시다	-3356
야할까	-3357
었네요	-3358
에게나	-3359
였는데	-3360
을텐데	-3361
이세요	-3362
점에서	-3363
하나봐	-3364
하라고	-3365
해야할	-3366
해하지	-3367
▁가벼운	-3368
▁가족이	-3369
▁강아지	-3370
▁같아서	-3371
▁걱정이	-3372
▁결혼할	-3373
▁고백할	-3374
▁그러고	-3375
▁그럼요	-3376
▁그리운	-3377
▁기숙사	-3378
▁기억이	-3379
▁기회를	-3380
▁끝났어	-3381
▁나만의	-3382
▁나쁘지	-3383
▁나아졌	-3384
▁나아질	-3385
▁나타날	-3386
▁남에게	-3387
▁누구든	-3388
▁눈치가	-3389
▁느끼는	-3390
▁늘어요	-3391
▁단단히	-3392
▁달콤한	-3393
▁당했어	-3394
▁대해서	-3395
▁돌아가	-3396
▁돌아올	-3397
▁두달이	-3398
▁들었어	-3399
▁따뜻할	-3400
▁마시면	-3401
▁만나도	-3402
▁만드는	-3403
▁만들고	-3404
▁많아서	-3405
▁맛나게	-3406
▁머리랑	-3407
▁머릿속	-3408
▁모든걸	-3409
▁모르게	-3410
▁뭐할까	-3411
▁불편해	-3412
▁사랑과	-3413
▁사랑도	-3414
▁사랑하	-3415
▁사야지	-3416
▁사이에	-3417
▁사정이	-3418
▁삼겹살	-3419
▁생기면	-3420
▁성공할	-3421
▁세상은	-3422
▁소화제	-3423
▁시작해	-3424
▁신나는	-3425
▁실수를	-3426
▁싶다고	-3427
▁썸인가	-3428
▁아까워	-3429
▁아니죠	-3430
▁아이돌	-3431
▁아침이	-3432
▁안되네	-3433
▁어떨까	-3434
▁없어도	-3435
▁여유가	-3436
▁여행도	-3437
▁연애로	-3438
▁영화관	-3439
▁오늘이	-3440
▁우연히	-3441
▁위해서	-3442
▁음식을	-3443
▁이루어	-3444
▁자격증	-3445
▁자신감	-3446
▁잘못된	-3447
▁잘못인	-3448
▁전화가	-3449
▁종교가	-3450
▁찾기를	-3451
▁청첩장	-3452
▁컨디션	-3453
▁하고싶	-3454
▁하는건	-3455
▁하늘을	-3456
▁하루도	-3457
▁하자고	-3458
▁현실의	-3459
▁혼자도	-3460
▁회사와	-3461
▁후회는	-3462
▁흐르고	-3463
렸나봐요	-3464
았습니다	-3465
하고싶어	-3466
하시군요	-3467
해야겠지	-3468
▁결혼해도	-3469
▁고백하는	-3470
▁고백하면	-3471
▁공부해서	-3472
▁관심사를	-3473
▁궁금해요	-3474
▁그렇다면	-3475
▁긍정적인	-3476
▁까먹었다	-3477
▁놀러가고	-3478
▁느낌이야	-3479
▁데이트를	-3480
▁드릴게요	-3481
▁마셔야지	-3482
▁말이네요	-3483
▁말해볼까	-3484
▁목소리를	-3485
▁미세먼지	-3486
▁사람들은	-3487
▁생겼으면	-3488
▁세상에서	-3489
▁싫어하는	-3490
▁아니지만	-3491
▁알아보고	-3492
▁어디까지	-3493
▁오늘따라	-3494
▁왔습니다	-3495
▁우선순위	-3496
▁유지하는	-3497
▁의미부여	-3498
▁이번에는	-3499
▁잠수이별	-3500
▁좋아하나	-3501
▁좋았는데	-3502
▁중입니다	-3503
▁줘보세요	-3504
▁짝녀에게	-3505
▁추천해요	-3506
▁해야겠다	-3507
▁해야할지	-3508
▁행복해지	-3509
▁헤어지자	-3510
▁회원정보	-3511
▁관리하세요	-3512
▁괜찮아졌길	-3513
▁기다리는게	-3514
▁다르겠지요	-3515
▁말해주세요	-3516
▁먹어보세요	-3517
▁물어보는게	-3518
▁받아보세요	-3519
▁보내주세요	-3520
▁사랑이네요	-3521
▁생각만해도	-3522
▁생각했는데	-3523
▁소식이네요	-3524
▁아무렇지도	-3525
▁읽어보세요	-3526
▁있나봅니다	-3527
▁좋아하는거	-3528
▁챙겨드세요	-3529
▁취해보세요	-3530
▁사람인가봐요	-3531
▁사랑했나봐요	-3532
▁생각했나봐요	-3533
▁여자친구한테	-3534
▁좋아하나봐요	-3535
▁노력하겠습니다	-3536
▁거기까지인가봐요	-3537
▁검	-3538
▁꽤	-3539
▁끌	-3540
▁끓	-3541
▁낙	-3542
▁니	-3543
▁땅	-3544
▁땐	-3545
▁레	-3546
▁며	-3547
▁브	-3548
▁빈	-3549
▁색	-3550
▁쌩	-3551
▁앉	-3552
▁쟁	-3553
▁짠	-3554
▁쪼	-3555
▁칼	-3556
▁탄	-3557
▁탔	-3558
▁활	-3559
▁휘	-3560
▁흥	-3561
간다	-3562
같지	-3563
기력	-3564
길이	-3565
나나	-3566
나네	-3567
났어	-3568
년간	-3569
년을	-3570
다른	-3571
담을	-3572
도를	-3573
되길	-3574
되지	-3575
드름	-3576
들지	-3577
라우	-3578
란게	-3579
랑이	-3580
렸을	-3581
료가	-3582
리러	-3583
만한	-3584
모습	-3585
비가	-3586
셔야	-3587
소음	-3588
수있	-3589
순간	-3590
스피	-3591
시키	-3592
쓰는	-3593
양이	-3594
였을	-3595
우스	-3596
이래	-3597
인다	-3598
일차	-3599
자를	-3600
장에	-3601
적령	-3602
종일	-3603
주도	-3604
지길	-3605
출발	-3606
침이	-3607
침표	-3608
콜릿	-3609
크닉	-3610
터가	-3611
토닥	-3612
트북	-3613
하철	-3614
호회	-3615
▁15	-3616
▁간사	-3617
▁강렬	-3618
▁거랑	-3619
▁거요	-3620
▁건조	-3621
▁검색	-3622
▁겨우	-3623
▁고칠	-3624
▁공개	-3625
▁그를	-3626
▁그저	-3627
▁기도	-3628
▁길어	-3629
▁깨닫	-3630
▁꿈은	-3631
▁끝도	-3632
▁끝에	-3633
▁끝인	-3634
▁나네	-3635
▁난방	-3636
▁남는	-3637
▁남지	-3638
▁냉정	-3639
▁너는	-3640
▁노는	-3641
▁놀죠	-3642
▁니가	-3643
▁단둘	-3644
▁달려	-3645
▁대리	-3646
▁덜할	-3647
▁덤덤	-3648
▁동성	-3649
▁든든	-3650
▁들이	-3651
▁때로	-3652
▁뛰어	-3653
▁마셨	-3654
▁막혀	-3655
▁말로	-3656
▁맛이	-3657
▁매주	-3658
▁멍청	-3659
▁못했	-3660
▁발목	-3661
▁버티	-3662
▁보게	-3663
▁봐서	-3664
▁부드	-3665
▁비싼	-3666
▁빠져	-3667
▁사겨	-3668
▁사내	-3669
▁살이	-3670
▁살지	-3671
▁상의	-3672
▁생리	-3673
▁서툴	-3674
▁섬유	-3675
▁성숙	-3676
▁세워	-3677
▁셀카	-3678
▁술만	-3679
▁신기	-3680
▁쓰지	-3681
▁아기	-3682
▁아깝	-3683
▁아쉽	-3684
▁알기	-3685
▁애를	-3686
▁약을	-3687
▁약이	-3688
▁어필	-3689
▁언니	-3690
▁오지	-3691
▁올해	-3692
▁와서	-3693
▁위기	-3694
▁유학	-3695
▁유효	-3696
▁의사	-3697
▁일년	-3698
▁입고	-3699
▁입지	-3700
▁있다	-3701
▁잡아	-3702
▁적게	-3703
▁전혀	-3704
▁정류	-3705
▁정의	-3706
▁제게	-3707
▁조건	-3708
▁종일	-3709
▁주식	-3710
▁줄까	-3711
▁줄어	-3712
▁즐겁	-3713
▁지울	-3714
▁지치	-3715
▁참지	-3716
▁책을	-3717
▁철벽	-3718
▁최근	-3719
▁축복	-3720
▁충격	-3721
▁침대	-3722
▁코스	-3723
▁키가	-3724
▁택배	-3725
▁패턴	-3726
▁포근	-3727
▁풀렸	-3728
▁풀어	-3729
▁했나	-3730
▁호의	-3731
▁확신	-3732
▁회복	-3733
▁흔적	-3734
▁흘러	-3735
▁흥미	-3736
라우마	-3737
보아요	-3738
보여요	-3739
야하나	-3740
에서도	-3741
였으면	-3742
유증이	-3743
이예요	-3744
인데이	-3745
인인데	-3746
적이야	-3747
지네요	-3748
하다는	-3749
할거라	-3750
해야죠	-3751
했더니	-3752
했지만	-3753
▁가능한	-3754
▁가능해	-3755
▁가만히	-3756
▁같다고	-3757
▁것처럼	-3758
▁결정은	-3759
▁경험이	-3760
▁계획을	-3761
▁고마워	-3762
▁그녀와	-3763
▁그럴까	-3764
▁그럴만	-3765
▁그렇죠	-3766
▁그분이	-3767
▁기억을	-3768
▁끝나고	-3769
▁남들이	-3770
▁내일도	-3771
▁노트북	-3772
▁느껴져	-3773
▁다음에	-3774
▁달달한	-3775
▁답장이	-3776
▁동료가	-3777
▁동호회	-3778
▁됐어요	-3779
▁되는게	-3780
▁될지도	-3781
▁뒤에서	-3782
▁떠나고	-3783
▁마음과	-3784
▁마침표	-3785
▁많으면	-3786
▁말라고	-3787
▁말투가	-3788
▁말하고	-3789
▁말해도	-3790
▁말해줘	-3791
▁맞는지	-3792
▁맞을까	-3793
▁멋져요	-3794
▁모든게	-3795
▁모른척	-3796
▁무기력	-3797
▁미련은	-3798
▁바라는	-3799
▁바라지	-3800
▁배우자	-3801
▁번호를	-3802
▁변하는	-3803
▁보는게	-3804
▁보여요	-3805
▁불공평	-3806
▁사는게	-3807
▁살아요	-3808
▁상담을	-3809
▁상대가	-3810
▁새출발	-3811
▁생각날	-3812
▁선물로	-3813
▁소리가	-3814
▁속상해	-3815
▁속에서	-3816
▁순간이	-3817
▁쉬어가	-3818
▁신경을	-3819
▁신경이	-3820
▁썸에서	-3821
▁아니고	-3822
▁아닐까	-3823
▁아름답	-3824
▁아빠가	-3825
▁아직은	-3826
▁아프지	-3827
▁아픔을	-3828
▁아픔의	-3829
▁앞두고	-3830
▁어렵네	-3831
▁없애는	-3832
▁여드름	-3833
▁여자는	-3834
▁여자와	-3835
▁여행가	-3836
▁연습이	-3837
▁영화보	-3838
▁오래된	-3839
▁우리가	-3840
▁우울해	-3841
▁운명이	-3842
▁이해해	-3843
▁인스타	-3844
▁일들이	-3845
▁일부터	-3846
▁일이죠	-3847
▁있을지	-3848
▁잊혀질	-3849
▁자세히	-3850
▁자체로	-3851
▁정도는	-3852
▁정리될	-3853
▁정말로	-3854
▁제주도	-3855
▁좋으시	-3856
▁중국어	-3857
▁증거를	-3858
▁지내는	-3859
▁지하철	-3860
▁차가워	-3861
▁처음에	-3862
▁초콜릿	-3863
▁출퇴근	-3864
▁친구도	-3865
▁키우고	-3866
▁태어났	-3867
▁피크닉	-3868
▁하네요	-3869
▁하려고	-3870
▁하루를	-3871
▁하지만	-3872
▁해야죠	-3873
▁해주고	-3874
▁했어요	-3875
▁확인해	-3876
▁환승은	-3877
▁힘내지	-3878
갈거예요	-3879
개월만에	-3880
이니까요	-3881
하니까요	-3882
하시네요	-3883
▁결혼적령	-3884
▁고백하고	-3885
▁그러게요	-3886
▁기다리지	-3887
▁남자한테	-3888
▁노력하면	-3889
▁답답하네	-3890
▁당연하죠	-3891
▁될거예요	-3892
▁듯합니다	-3893
▁모르는게	-3894
▁무시하는	-3895
▁물어봐요	-3896
▁미친듯이	-3897
▁별로라고	-3898
▁봉사활동	-3899
▁비교하지	-3900
▁빠를수록	-3901
▁사람인데	-3902
▁사랑에는	-3903
▁사이에서	-3904
▁사회생활	-3905
▁상처받지	-3906
▁생각할까	-3907
▁생각해도	-3908
▁성공하길	-3909
▁시원하게	-3910
▁신혼여행	-3911
▁아니네요	-3912
▁안되겠지	-3913
▁안되는데	-3914
▁엄마한테	-3915
▁연락처를	-3916
▁연애하고	-3917
▁이별하고	-3918
▁이제라도	-3919
▁있겠네요	-3920
▁있었나요	-3921
▁잡으세요	-3922
▁전화하는	-3923
▁좋을까요	-3924
▁준비하고	-3925
▁지금보다	-3926
▁취미생활	-3927
▁친구라고	-3928
▁카페에서	-3929
▁트라우마	-3930
▁표현하는	-3931
▁필요했을	-3932
▁하나라도	-3933
▁하루에도	-3934
▁행복해질	-3935
▁헤아리지	-3936
▁헤어짐을	-3937
▁혼자만의	-3938
▁화장하는	-3939
▁후유증이	-3940
▁힘들지요	-3941
▁가능합니다	-3942
▁간접적이든	-3943
▁그랬나봐요	-3944
▁기분전환을	-3945
▁누구에게나	-3946
▁다음부터는	-3947
▁떠나보세요	-3948
▁만남이었길	-3949
▁말씀하세요	-3950
▁맞을거예요	-3951
▁받아들이기	-3952
▁밝혀보세요	-3953
▁버텨보세요	-3954
▁보여주세요	-3955
▁부담스러운	-3956
▁사람이라면	-3957
▁생각해봐요	-3958
▁시작하세요	-3959
▁않았나봐요	-3960
▁억지로라도	-3961
▁이야기해도	-3962
▁정해보세요	-3963
▁좋아했는데	-3964
▁주기적으로	-3965
▁직접적이든	-3966
▁참아보세요	-3967
▁축하합니다	-3968
▁풀어보세요	-3969
▁하지마세요	-3970
▁힘들어하지	-3971
▁기다려주세요	-3972
▁발렌타인데이	-3973
▁사람이니까요	-3974
▁위로봇입니다	-3975
▁필요하겠어요	-3976
▁결정이었을텐데	-3977
▁거기까지였나봐요	-3978
00	-3979
▁곰	-3980
▁곱	-3981
▁광	-3982
▁낚	-3983
▁낳	-3984
▁낼	-3985
▁닫	-3986
▁득	-3987
▁롱	-3988
▁를	-3989
▁묻	-3990
▁밖	-3991
▁벽	-3992
▁쉴	-3993
▁슈	-3994
▁씨	-3995
▁액	-3996
▁옳	-3997
▁임	-3998
▁찜	-3999
▁찼	-4000
▁황	-4001
▁흑	-4002
거같	-4003
거지	-4004
건데	-4005
겠음	-4006
겨워	-4007
곰히	-4008
관계	-4009
관리	-4010
교통	-4011
근차	-4012
기업	-4013
끄러	-4014
끼리	-4015
났네	-4016
대체	-4017
대회	-4018
도는	-4019
돌아	-4020
돼서	-4021
듯한	-4022
라서	-4023
로리	-4024
만나	-4025
매일	-4026
면증	-4027
바이	-4028
바퀴	-4029
벤트	-4030
상담	-4031
선물	-4032
세포	-4033
수가	-4034
수를	-4035
수증	-4036
심을	-4037
였던	-4038
와서	-4039
와요	-4040
이크	-4041
인상	-4042
작정	-4043
잖아	-4044
저리	-4045
절한	-4046
젯밤	-4047
졌네	-4048
조심	-4049
지런	-4050
지죠	-4051
질방	-4052
짐에	-4053
청소	-4054
터디	-4055
트업	-4056
트콘	-4057
표현	-4058
하자	-4059
학기	-4060
한잔	-4061
해를	-4062
했길	-4063
행기	-4064
형이	-4065
화가	-4066
히려	-4067
▁가늠	-4068
▁가득	-4069
▁가려	-4070
▁가을	-4071
▁갈때	-4072
▁감당	-4073
▁감히	-4074
▁갔어	-4075
▁강습	-4076
▁갖지	-4077
▁거둘	-4078
▁것들	-4079
▁고고	-4080
▁고기	-4081
▁고장	-4082
▁고치	-4083
▁공감	-4084
▁관련	-4085
▁귀를	-4086
▁금연	-4087
▁기프	-4088
▁깊게	-4089
▁깜빡	-4090
▁꾸며	-4091
▁끝날	-4092
▁나누	-4093
▁나빠	-4094
▁낭비	-4095
▁넘어	-4096
▁놀다	-4097
▁누굴	-4098
▁눈썹	-4099
▁느낀	-4100
▁늦어	-4101
▁단순	-4102
▁단호	-4103
▁대답	-4104
▁대우	-4105
▁대중	-4106
▁대체	-4107
▁도망	-4108
▁동감	-4109
▁득템	-4110
▁들리	-4111
▁들을	-4112
▁때려	-4113
▁로봇	-4114
▁막차	-4115
▁많네	-4116
▁많다	-4117
▁말아	-4118
▁말한	-4119
▁망가	-4120
▁맞지	-4121
▁맞춤	-4122
▁매번	-4123
▁먹지	-4124
▁며칠	-4125
▁몇일	-4126
▁모으	-4127
▁무릎	-4128
▁뭐하	-4129
▁바디	-4130
▁밤에	-4131
▁베풀	-4132
▁변해	-4133
▁보름	-4134
▁부부	-4135
▁분노	-4136
▁분들	-4137
▁불타	-4138
▁빠른	-4139
▁빼고	-4140
▁살면	-4141
▁삶의	-4142
▁서류	-4143
▁성덕	-4144
▁성적	-4145
▁성형	-4146
▁소액	-4147
▁소유	-4148
▁소주	-4149
▁속은	-4150
▁수염	-4151
▁수영	-4152
▁수학	-4153
▁쉬어	-4154
▁쉽진	-4155
▁슈퍼	-4156
▁스테	-4157
▁스팸	-4158
▁슬픔	-4159
▁실례	-4160
▁싸움	-4161
▁쌩얼	-4162
▁썸만	-4163
▁썸일	-4164
▁썼어	-4165
▁씻고	-4166
▁아님	-4167
▁아련	-4168
▁아물	-4169
▁아주	-4170
▁안가	-4171
▁안에	-4172
▁알뜰	-4173
▁애석	-4174
▁애틋	-4175
▁어둠	-4176
▁어떠	-4177
▁연휴	-4178
▁예전	-4179
▁오락	-4180
▁오토	-4181
▁온다	-4182
▁올까	-4183
▁옷이	-4184
▁왕따	-4185
▁요구	-4186
▁요금	-4187
▁욕심	-4188
▁우린	-4189
▁운을	-4190
▁웃어	-4191
▁육아	-4192
▁음식	-4193
▁의견	-4194
▁이것	-4195
▁이뻐	-4196
▁이쁜	-4197
▁인공	-4198
▁일단	-4199
▁일에	-4200
▁잃어	-4201
▁입이	-4202
▁자는	-4203
▁자면	-4204
▁자취	-4205
▁잠재	-4206
▁잡는	-4207
▁전세	-4208
▁전역	-4209
▁점은	-4210
▁점이	-4211
▁조용	-4212
▁조차	-4213
▁조카	-4214
▁좋게	-4215
▁좋고	-4216
▁주름	-4217
▁중고	-4218
▁증오	-4219
▁지냈	-4220
▁지키	-4221
▁진지	-4222
▁짧지	-4223
▁찌질	-4224
▁차갑	-4225
▁차례	-4226
▁참아	-4227
▁창업	-4228
▁책임	-4229
▁초기	-4230
▁추석	-4231
▁추운	-4232
▁치고	-4233
▁치맥	-4234
▁치열	-4235
▁치유	-4236
▁키워	-4237
▁타기	-4238
▁타던	-4239
▁탈출	-4240
▁탈퇴	-4241
▁티가	-4242
▁티를	-4243
▁평가	-4244
▁평온	-4245
▁표시	-4246
▁푸는	-4247
▁필름	-4248
▁하든	-4249
▁학점	-4250
▁한강	-4251
▁합격	-4252
▁해낼	-4253
▁했다	-4254
▁허리	-4255
▁형편	-4256
▁혼란	-4257
▁혼술	-4258
▁화내	-4259
▁희생	-4260
▁힘껏	-4261
것같아	-4262
겠는데	-4263
교통을	-4264
근차근	-4265
년만에	-4266
년이란	-4267
되는데	-4268
들에게	-4269
방법을	-4270
봐야지	-4271
생활이	-4272
셨군요	-4273
스러울	-4274
스크림	-4275
스피싱	-4276
시간이	-4277
심으로	-4278
었나봐	-4279
영수증	-4280
우니까	-4281
으려면	-4282
이겠죠	-4283
인건가	-4284
적이고	-4285
적이죠	-4286
졌는데	-4287
지말고	-4288
하더니	-4289
하려는	-4290
할거야	-4291
할까봐	-4292
해주면	-4293
했나봐	-4294
▁가사가	-4295
▁가짐에	-4296
▁각자의	-4297
▁감정은	-4298
▁갔는데	-4299
▁거울을	-4300
▁걱정은	-4301
▁건가요	-4302
▁건강이	-4303
▁걸까요	-4304
▁것들이	-4305
▁견디고	-4306
▁결정할	-4307
▁경우가	-4308
▁경우도	-4309
▁계절이	-4310
▁고맙다	-4311
▁곰곰히	-4312
▁괴로워	-4313
▁괴롭게	-4314
▁군침이	-4315
▁궁금할	-4316
▁권태기	-4317
▁귀엽게	-4318
▁그러는	-4319
▁그분의	-4320
▁기간이	-4321
▁기대가	-4322
▁기분은	-4323
▁길에서	-4324
▁끝났네	-4325
▁나가기	-4326
▁낫겠지	-4327
▁너무나	-4328
▁넘었네	-4329
▁노래를	-4330
▁놀아줘	-4331
▁누구도	-4332
▁능력을	-4333
▁당연히	-4334
▁대화가	-4335
▁더러워	-4336
▁도네요	-4337
▁도대체	-4338
▁도와주	-4339
▁도전해	-4340
▁되겠지	-4341
▁두근거	-4342
▁두번째	-4343
▁드시고	-4344
▁듣는데	-4345
▁떠보는	-4346
▁뜻대로	-4347
▁마주쳐	-4348
▁마주치	-4349
▁만나길	-4350
▁만나러	-4351
▁만남과	-4352
▁만남이	-4353
▁맛있을	-4354
▁망했어	-4355
▁머리는	-4356
▁멋지게	-4357
▁모아서	-4358
▁못하면	-4359
▁무거워	-4360
▁무엇을	-4361
▁무작정	-4362
▁문제는	-4363
▁문제로	-4364
▁미래에	-4365
▁바쁘면	-4366
▁방법을	-4367
▁배우면	-4368
▁버려야	-4369
▁변하지	-4370
▁별로야	-4371
▁보면서	-4372
▁보아요	-4373
▁보이는	-4374
▁부딪혔	-4375
▁부지런	-4376
▁불면증	-4377
▁비행기	-4378
▁사귀면	-4379
▁사람만	-4380
▁살면서	-4381
▁상처는	-4382
▁새학기	-4383
▁생리통	-4384
▁서로가	-4385
▁선배가	-4386
▁성공을	-4387
▁소식이	-4388
▁소심해	-4389
▁술먹고	-4390
▁쉬어야	-4391
▁스터디	-4392
▁시간에	-4393
▁시간표	-4394
▁실수할	-4395
▁싫다고	-4396
▁심경의	-4397
▁싸우면	-4398
▁아닌거	-4399
▁아프고	-4400
▁아픔이	-4401
▁안경테	-4402
▁안녕히	-4403
▁않지만	-4404
▁알았어	-4405
▁약속을	-4406
▁양해를	-4407
▁얘기를	-4408
▁어디로	-4409
▁어젯밤	-4410
▁언제든	-4411
▁얼굴이	-4412
▁없겠지	-4413
▁없는게	-4414
▁없지만	-4415
▁영원한	-4416
▁오히려	-4417
▁월급이	-4418
▁월요일	-4419
▁의미가	-4420
▁의미를	-4421
▁의외로	-4422
▁의욕이	-4423
▁이벤트	-4424
▁이해할	-4425
▁인상이	-4426
▁일어날	-4427
▁있는거	-4428
▁있어야	-4429
▁자괴감	-4430
▁자기도	-4431
▁자신과	-4432
▁자존감	-4433
▁잘해야	-4434
▁재회를	-4435
▁접어두	-4436
▁정규직	-4437
▁좋아질	-4438
▁준비중	-4439
▁중요할	-4440
▁지겨워	-4441
▁지나간	-4442
▁진심이	-4443
▁집중이	-4444
▁집착해	-4445
▁짜장면	-4446
▁찜질방	-4447
▁차이가	-4448
▁찾아오	-4449
▁첫인상	-4450
▁최근에	-4451
▁최대한	-4452
▁최선을	-4453
▁추억은	-4454
▁치과에	-4455
▁커피향	-4456
▁타다가	-4457
▁태어나	-4458
▁택시비	-4459
▁터놓고	-4460
▁퇴근길	-4461
▁특별한	-4462
▁파먹기	-4463
▁피부가	-4464
▁하거나	-4465
▁하루가	-4466
▁하루에	-4467
▁학원을	-4468
▁행동이	-4469
▁화이트	-4470
▁회사에	-4471
▁휴가가	-4472
▁휴식을	-4473
▁흥미를	-4474
▁힘든데	-4475
▁힘들고	-4476
되겠네요	-4477
버리세요	-4478
야하는데	-4479
었겠네요	-4480
었습니다	-4481
왔습니다	-4482
의하세요	-4483
▁가능할까	-4484
▁고민하게	-4485
▁고쳐쓰는	-4486
▁공부하기	-4487
▁공허함이	-4488
▁괜찮다면	-4489
▁괜찮지만	-4490
▁그럴지도	-4491
▁그만하고	-4492
▁기프트콘	-4493
▁깨끗하게	-4494
▁끝났으면	-4495
▁나을지도	-4496
▁나한테만	-4497
▁남사친이	-4498
▁노력하고	-4499
▁다가가는	-4500
▁다양하게	-4501
▁당신에게	-4502
▁돌아가고	-4503
▁드라이브	-4504
▁만들려고	-4505
▁말해봐요	-4506
▁맛있어요	-4507
▁매일매일	-4508
▁먹었는데	-4509
▁물어보고	-4510
▁받아보는	-4511
▁부드럽게	-4512
▁비밀번호	-4513
▁사귀어도	-4514
▁사랑받고	-4515
▁사랑하기	-4516
▁사보세요	-4517
▁사이인데	-4518
▁상대방도	-4519
▁생각나고	-4520
▁선생님이	-4521
▁세상에는	-4522
▁센스있는	-4523
▁셀프웨딩	-4524
▁소개시켜	-4525
▁스타트업	-4526
▁시작해도	-4527
▁신경쓰는	-4528
▁실수하지	-4529
▁싫어하지	-4530
▁싸우면서	-4531
▁아니라는	-4532
▁않겠어요	-4533
▁애정표현	-4534
▁언제까지	-4535
▁얼마든지	-4536
▁여자들이	-4537
▁연락해서	-4538
▁오락가락	-4539
▁오토바이	-4540
▁운동으로	-4541
▁응원해요	-4542
▁의미있는	-4543
▁이기적인	-4544
▁이야기해	-4545
▁익숙해질	-4546
▁인정받고	-4547
▁잊는다는	-4548
▁전남친이	-4549
▁좋습니다	-4550
▁좋아하지	-4551
▁지나갔길	-4552
▁진정으로	-4553
▁집안일을	-4554
▁집착하는	-4555
▁차근차근	-4556
▁차리세요	-4557
▁차분하게	-4558
▁처음부터	-4559
▁처음에는	-4560
▁첫사랑이	-4561
▁체육대회	-4562
▁추억으로	-4563
▁추천해줘	-4564
▁포기하는	-4565
▁하루종일	-4566
▁학교에서	-4567
▁행복하길	-4568
▁행복할까	-4569
▁혼자서도	-4570
▁회사에는	-4571
▁힘들지도	-4572
드려보세요	-4573
했나봅니다	-4574
▁꾸며보세요	-4575
▁달라지는게	-4576
▁대중교통을	-4577
▁되었나봐요	-4578
▁들여보세요	-4579
▁마음이라도	-4580
▁많은가봐요	-4581
▁못했나봐요	-4582
▁벗어나세요	-4583
▁보이스피싱	-4584
▁붙여보세요	-4585
▁빌려보세요	-4586
▁사랑한다는	-4587
▁사랑할수록	-4588
▁상관없어요	-4589
▁선택일거라	-4590
▁스트레칭을	-4591
▁습관이네요	-4592
▁신고하세요	-4593
▁심하겠네요	-4594
▁심한가봐요	-4595
▁아니랍니다	-4596
▁아닌가봐요	-4597
▁아이스크림	-4598
▁안녕하세요	-4599
▁안타깝네요	-4600
▁않을거예요	-4601
▁올려달라고	-4602
▁웃어보세요	-4603
▁재미있어요	-4604
▁정류장에서	-4605
▁좋아한다고	-4606
▁준비하세요	-4607
▁줄여보세요	-4608
▁집중하세요	-4609
▁청해보세요	-4610
▁추천합니다	-4611
▁충전하세요	-4612
▁헤어지는게	-4613
▁헤어지세요	-4614
▁현금영수증	-4615
▁화이트데이	-4616
▁힘들거예요	-4617
▁걱정되겠네요	-4618
▁남자친구한테	-4619
▁시간이겠네요	-4620
▁연습해보세요	-4621
▁예민한가봐요	-4622
▁이별했습니다	-4623
▁이용해주세요	-4624
▁정리해보세요	-4625
▁좋아할거예요	-4626
▁피곤한가봐요	-4627
▁필요한가봐요	-4628
▁힘드신가봐요	-4629
▁두근거리겠어요	-4630
▁부지런하시네요	-4631
▁심호흡해보세요	-4632
▁긁	-4633
▁꾹	-4634
▁끼	-4635
▁뉴	-4636
▁덕	-4637
▁떡	-4638
▁똥	-4639
▁랜	-4640
▁밑	-4641
▁밟	-4642
▁북	-4643
▁빚	-4644
▁빵	-4645
▁삐	-4646
▁승	-4647
▁씌	-4648
▁엉	-4649
▁엮	-4650
▁옥	-4651
▁왠	-4652
▁쪽	-4653
▁쫌	-4654
▁층	-4655
▁켜	-4656
▁쿨	-4657
▁탓	-4658
▁팀	-4659
▁퍼	-4660
▁헌	-4661
▁훈	-4662
갔네	-4663
걸요	-4664
게임	-4665
고가	-4666
김에	-4667
나가	-4668
난거	-4669
난히	-4670
냐구	-4671
노래	-4672
능에	-4673
다리	-4674
달콩	-4675
담화	-4676
동산	-4677
되기	-4678
두절	-4679
드가	-4680
드시	-4681
레스	-4682
력은	-4683
련만	-4684
롭게	-4685
르네	-4686
모가	-4687
무게	-4688
문이	-4689
버려	-4690
버리	-4691
버시	-4692
봤어	-4693
분간	-4694
사는	-4695
사에	-4696
살이	-4697
생각	-4698
서야	-4699
셨나	-4700
수저	-4701
숭숭	-4702
식에	-4703
심한	-4704
쏟아	-4705
았네	-4706
았다	-4707
연제	-4708
였나	-4709
오를	-4710
와의	-4711
왔네	-4712
우는	-4713
우니	-4714
웠을	-4715
으려	-4716
으며	-4717
은거	-4718
을때	-4719
의금	-4720
있나	-4721
있음	-4722
있지	-4723
저분	-4724
정리	-4725
조절	-4726
조차	-4727
주째	-4728
줘야	-4729
증을	-4730
진다	-4731
질이	-4732
참고	-4733
카락	-4734
터에	-4735
트가	-4736
플라	-4737
하실	-4738
한번	-4739
히네	-4740
힌다	-4741
▁20	-4742
▁가라	-4743
▁가볍	-4744
▁가스	-4745
▁간식	-4746
▁감수	-4747
▁감싸	-4748
▁갚아	-4749
▁개념	-4750
▁거는	-4751
▁걸려	-4752
▁걸린	-4753
▁것만	-4754
▁격려	-4755
▁경제	-4756
▁곳을	-4757
▁괜한	-4758
▁괴로	-4759
▁구분	-4760
▁구속	-4761
▁그가	-4762
▁기댈	-4763
▁길게	-4764
▁길은	-4765
▁김치	-4766
▁꺼내	-4767
▁꼼꼼	-4768
▁꾹꾹	-4769
▁꿈같	-4770
▁끄는	-4771
▁끓여	-4772
▁끝낼	-4773
▁끝일	-4774
▁나날	-4775
▁나약	-4776
▁낚시	-4777
▁남길	-4778
▁낭만	-4779
▁내게	-4780
▁내기	-4781
▁내내	-4782
▁높아	-4783
▁눈은	-4784
▁능력	-4785
▁늦는	-4786
▁늦잠	-4787
▁다짐	-4788
▁다툼	-4789
▁단톡	-4790
▁담긴	-4791
▁더욱	-4792
▁돈은	-4793
▁되기	-4794
▁듣기	-4795
▁들까	-4796
▁들려	-4797
▁들면	-4798
▁등산	-4799
▁등을	-4800
▁떠났	-4801
▁떨쳐	-4802
▁랜선	-4803
▁리폼	-4804
▁만에	-4805
▁맘을	-4806
▁맞나	-4807
▁먹으	-4808
▁먼지	-4809
▁면허	-4810
▁명품	-4811
▁모를	-4812
▁모쏠	-4813
▁모임	-4814
▁목이	-4815
▁몸에	-4816
▁무관	-4817
▁무의	-4818
▁무한	-4819
▁물건	-4820
▁뭐임	-4821
▁미용	-4822
▁미칠	-4823
▁미화	-4824
▁바늘	-4825
▁바지	-4826
▁반갑	-4827
▁받기	-4828
▁방문	-4829
▁배울	-4830
▁버리	-4831
▁번씩	-4832
▁벌고	-4833
▁벽에	-4834
▁변한	-4835
▁보단	-4836
▁보며	-4837
▁복전	-4838
▁봄은	-4839
▁부디	-4840
▁부여	-4841
▁불금	-4842
▁비하	-4843
▁빠졌	-4844
▁빨래	-4845
▁뽑기	-4846
▁사냐	-4847
▁사탕	-4848
▁살찐	-4849
▁상메	-4850
▁서툰	-4851
▁설렜	-4852
▁설명	-4853
▁세월	-4854
▁손에	-4855
▁손톱	-4856
▁손해	-4857
▁수상	-4858
▁수업	-4859
▁수준	-4860
▁술은	-4861
▁숨막	-4862
▁슬쩍	-4863
▁시골	-4864
▁시도	-4865
▁식단	-4866
▁신발	-4867
▁심어	-4868
▁썸인	-4869
▁쓸쓸	-4870
▁씁쓸	-4871
▁아마	-4872
▁아팠	-4873
▁안주	-4874
▁알지	-4875
▁알콩	-4876
▁애기	-4877
▁양말	-4878
▁어깨	-4879
▁어른	-4880
▁어리	-4881
▁염탐	-4882
▁예감	-4883
▁올랐	-4884
▁옷을	-4885
▁와닿	-4886
▁왜그	-4887
▁요리	-4888
▁웃겨	-4889
▁유행	-4890
▁은행	-4891
▁이모	-4892
▁이틀	-4893
▁일반	-4894
▁읽씹	-4895
▁입에	-4896
▁있음	-4897
▁자도	-4898
▁작아	-4899
▁잔인	-4900
▁잘살	-4901
▁잘자	-4902
▁쟁취	-4903
▁적어	-4904
▁적이	-4905
▁전기	-4906
▁전해	-4907
▁제안	-4908
▁좋으	-4909
▁주차	-4910
▁주택	-4911
▁지낼	-4912
▁지루	-4913
▁지옥	-4914
▁진행	-4915
▁질질	-4916
▁짐을	-4917
▁집앞	-4918
▁짧게	-4919
▁찍고	-4920
▁착잡	-4921
▁참석	-4922
▁참을	-4923
▁처럼	-4924
▁첫눈	-4925
▁추스	-4926
▁층간	-4927
▁치매	-4928
▁치워	-4929
▁컴퓨	-4930
▁코가	-4931
▁타다	-4932
▁털어	-4933
▁특징	-4934
▁틀린	-4935
▁티내	-4936
▁편의	-4937
▁포장	-4938
▁표정	-4939
▁피자	-4940
▁한가	-4941
▁한계	-4942
▁한국	-4943
▁한창	-4944
▁한켠	-4945
▁할줄	-4946
▁해줄	-4947
▁호칭	-4948
▁흑역	-4949
거겠죠	-4950
겠다고	-4951
끄러워	-4952
납니다	-4953
냈어요	-4954
년연애	-4955
느냐에	-4956
데이트	-4957
라는게	-4958
릅니다	-4959
받았어	-4960
보다는	-4961
생인데	-4962
셔야죠	-4963
식하는	-4964
신가요	-4965
았으면	-4966
었나요	-4967
유연제	-4968
이라서	-4969
인걸까	-4970
인데요	-4971
정적인	-4972
지세요	-4973
집니다	-4974
터리가	-4975
테리어	-4976
하겠지	-4977
한건가	-4978
해졌어	-4979
해주지	-4980
했네요	-4981
▁가까운	-4982
▁강렬한	-4983
▁거라고	-4984
▁거절의	-4985
▁걱정할	-4986
▁것들을	-4987
▁게임을	-4988
▁고마운	-4989
▁고백은	-4990
▁고치고	-4991
▁공부할	-4992
▁그러게	-4993
▁그리울	-4994
▁그리움	-4995
▁긁었어	-4996
▁금수저	-4997
▁기다렸	-4998
▁기다림	-4999
▁기대를	-5000
▁기본이	-5001
▁기억의	-5002
▁끝내고	-5003
▁끝인가	-5004
▁나가야	-5005
▁나갔어	-5006
▁남자도	-5007
▁너한테	-5008
▁누구랑	-5009
▁눈에서	-5010
▁다가오	-5011
▁다르죠	-5012
▁단둘이	-5013
▁달려있	-5014
▁당분간	-5015
▁당연한	-5016
▁대화로	-5017
▁되는거	-5018
▁뒤숭숭	-5019
▁뒤통수	-5020
▁뒷담화	-5021
▁드리고	-5022
▁드시면	-5023
▁들어도	-5024
▁들어서	-5025
▁들어올	-5026
▁들어줄	-5027
▁들으면	-5028
▁때문일	-5029
▁때예요	-5030
▁똑같아	-5031
▁마셔도	-5032
▁마실까	-5033
▁마음만	-5034
▁만나요	-5035
▁만나자	-5036
▁만남에	-5037
▁말했어	-5038
▁망했다	-5039
▁맞는거	-5040
▁맞아요	-5041
▁맞춤법	-5042
▁매력이	-5043
▁먹었어	-5044
▁먹자고	-5045
▁먼지가	-5046
▁멀어진	-5047
▁목소리	-5048
▁몸무게	-5049
▁못참고	-5050
▁못해서	-5051
▁못했던	-5052
▁물리적	-5053
▁뭐하는	-5054
▁미끄러	-5055
▁미련도	-5056
▁믿음을	-5057
▁바꿀까	-5058
▁바뀌게	-5059
▁바르고	-5060
▁바빠도	-5061
▁바빠서	-5062
▁밖에서	-5063
▁반응이	-5064
▁받아야	-5065
▁배고프	-5066
▁버텨요	-5067
▁베터리	-5068
▁보냈어	-5069
▁보자고	-5070
▁볼게요	-5071
▁봤는데	-5072
▁부탁드	-5073
▁빌어요	-5074
▁빠지는	-5075
▁뻔했어	-5076
▁사겨도	-5077
▁사귀던	-5078
▁사라질	-5079
▁살아가	-5080
▁상사가	-5081
▁상처도	-5082
▁서운해	-5083
▁서툴러	-5084
▁선에서	-5085
▁선택할	-5086
▁선톡을	-5087
▁세상이	-5088
▁소원을	-5089
▁속도를	-5090
▁슬프게	-5091
▁습관이	-5092
▁시계는	-5093
▁신경써	-5094
▁싫어도	-5095
▁심장이	-5096
▁싶다는	-5097
▁싸우는	-5098
▁아무말	-5099
▁아픔은	-5100
▁안하지	-5101
▁않는게	-5102
▁어디든	-5103
▁어려울	-5104
▁어렵죠	-5105
▁어렸을	-5106
▁어리게	-5107
▁어제와	-5108
▁어쩔수	-5109
▁없는거	-5110
▁여자도	-5111
▁여행은	-5112
▁연락오	-5113
▁연락할	-5114
▁연애의	-5115
▁연인은	-5116
▁옆에서	-5117
▁예민한	-5118
▁오빠가	-5119
▁요즘은	-5120
▁우리집	-5121
▁유난히	-5122
▁유부남	-5123
▁이기적	-5124
▁이름이	-5125
▁인연은	-5126
▁입어도	-5127
▁있었을	-5128
▁잘못을	-5129
▁잘못이	-5130
▁재밌는	-5131
▁재밌다	-5132
▁재밌어	-5133
▁재회는	-5134
▁정도로	-5135
▁존재를	-5136
▁좋을지	-5137
▁좋지요	-5138
▁주면서	-5139
▁주제를	-5140
▁줄어들	-5141
▁지나가	-5142
▁지나면	-5143
▁지내길	-5144
▁지르고	-5145
▁지우고	-5146
▁지저분	-5147
▁짜증날	-5148
▁차갑게	-5149
▁차별해	-5150
▁차이는	-5151
▁찾아온	-5152
▁추억에	-5153
▁축의금	-5154
▁친구네	-5155
▁친구는	-5156
▁친구와	-5157
▁친해지	-5158
▁친해질	-5159
▁카톡을	-5160
▁카톡이	-5161
▁편하고	-5162
▁평소에	-5163
▁프라이	-5164
▁프로필	-5165
▁피해를	-5166
▁하기도	-5167
▁하는지	-5168
▁하다가	-5169
▁하우스	-5170
▁한다는	-5171
▁한숨만	-5172
▁함께한	-5173
▁함께할	-5174
▁함부로	-5175
▁해보고	-5176
▁해야돼	-5177
▁해야할	-5178
▁행운을	-5179
▁현실과	-5180
▁혼자인	-5181
▁화장품	-5182
▁후회를	-5183
▁휴가를	-5184
▁힘든거	-5185
러보세요	-5186
뿐이에요	-5187
셨겠어요	-5188
시겠네요	-5189
지겠네요	-5190
테니까요	-5191
해야겠다	-5192
해야하는	-5193
해지세요	-5194
▁가능하면	-5195
▁가야겠죠	-5196
▁가치관이	-5197
▁거르세요	-5198
▁것입니다	-5199
▁결정이었	-5200
▁관리하는	-5201
▁권태기가	-5202
▁그대로의	-5203
▁기대하지	-5204
▁기억에서	-5205
▁나가볼까	-5206
▁나아졌길	-5207
▁낭비하지	-5208
▁놀이동산	-5209
▁달라진게	-5210
▁대화하는	-5211
▁도전하는	-5212
▁두려움을	-5213
▁두셨네요	-5214
▁들어왔어	-5215
▁떠오르는	-5216
▁마음정리	-5217
▁마주치는	-5218
▁만나는데	-5219
▁만들어서	-5220
▁맞추세요	-5221
▁머리카락	-5222
▁먹으면서	-5223
▁모르겠네	-5224
▁못하는게	-5225
▁물어보면	-5226
▁미워하지	-5227
▁미치겠네	-5228
▁미치겠어	-5229
▁믿으세요	-5230
▁받아들일	-5231
▁보고싶네	-5232
▁보이네요	-5233
▁비난하지	-5234
▁사랑해요	-5235
▁살다보면	-5236
▁상대방에	-5237
▁생각으로	-5238
▁생각해서	-5239
▁생겼네요	-5240
▁생일이네	-5241
▁서류에서	-5242
▁선택이길	-5243
▁성공하고	-5244
▁수학여행	-5245
▁시작이죠	-5246
▁시작하기	-5247
▁신경쓰여	-5248
▁신중하게	-5249
▁심호흡을	-5250
▁쓰레기야	-5251
▁아는데도	-5252
▁아니었을	-5253
▁아닌가요	-5254
▁알콩달콩	-5255
▁어떻게든	-5256
▁어떻게해	-5257
▁언젠가는	-5258
▁없겠지요	-5259
▁여사친이	-5260
▁연락두절	-5261
▁연애하는	-5262
▁연애하면	-5263
▁연인으로	-5264
▁오늘부터	-5265
▁왔나봐요	-5266
▁운명적인	-5267
▁이별이란	-5268
▁이별준비	-5269
▁이상형은	-5270
▁이상형이	-5271
▁이어나가	-5272
▁인생이죠	-5273
▁인정하고	-5274
▁일어나는	-5275
▁일어나서	-5276
▁있었는데	-5277
▁있으니까	-5278
▁있을게요	-5279
▁잊으려고	-5280
▁잊혀지지	-5281
▁자신으로	-5282
▁자유로워	-5283
▁자존감을	-5284
▁잘하는게	-5285
▁잘해주는	-5286
▁재미없어	-5287
▁재미있게	-5288
▁적응해야	-5289
▁정리하고	-5290
▁정확하게	-5291
▁좋았으면	-5292
▁좋으련만	-5293
▁주변에서	-5294
▁주식으로	-5295
▁중요한데	-5296
▁즐기면서	-5297
▁짝남에게	-5298
▁짝사랑을	-5299
▁층간소음	-5300
▁카톡으로	-5301
▁콩깍지가	-5302
▁퇴근하고	-5303
▁편하겠죠	-5304
▁필요한게	-5305
▁한달하고	-5306
▁해외여행	-5307
▁헤어지기	-5308
▁헤어지는	-5309
▁헤어짐이	-5310
▁후폭풍은	-5311
▁후회하기	-5312
▁후회해도	-5313
▁힘들었죠	-5314
담해보세요	-5315
었으니까요	-5316
하신가봐요	-5317
▁가능하겠죠	-5318
▁걱정된다고	-5319
▁걸리겠지만	-5320
▁결혼하는데	-5321
▁과정이에요	-5322
▁구해보세요	-5323
▁기원합니다	-5324
▁남았나봐요	-5325
▁남자애한테	-5326
▁남자친구를	-5327
▁대해보세요	-5328
▁두려워하지	-5329
▁들어주세요	-5330
▁맞춰보세요	-5331
▁맡겨보세요	-5332
▁먹어야겠다	-5333
▁미세먼지가	-5334
▁바꿔보세요	-5335
▁사과하세요	-5336
▁삭제하세요	-5337
▁상대방에게	-5338
▁상황이네요	-5339
▁섬유유연제	-5340
▁순간이네요	-5341
▁순간이었을	-5342
▁아름다워요	-5343
▁애매하네요	-5344
▁없을거예요	-5345
▁여자친구를	-5346
▁연락해볼까	-5347
▁연락했는데	-5348
▁연애하는데	-5349
▁외국인인데	-5350
▁이겨내세요	-5351
▁잃어버렸어	-5352
▁잊혀지기도	-5353
▁잘해주세요	-5354
▁좋아한다는	-5355
▁좋아했으면	-5356
▁좋을텐데요	-5357
▁큰일이네요	-5358
▁프라이버시	-5359
▁하고싶었던	-5360
▁힘든가봐요	-5361
이었나봅니다	-5362
▁남자친구에게	-5363
▁당황했겠어요	-5364
▁마음인가봐요	-5365
▁마주쳐보세요	-5366
▁미치겠습니다	-5367
▁어필해보세요	-5368
▁인정해주세요	-5369
▁있으신가봐요	-5370
▁전화해보세요	-5371
▁좋아해줬으면	-5372
▁필요하다면요	-5373
▁부담스러워하지	-5374
▁객	-5375
▁갠	-5376
▁겪	-5377
▁국	-5378
▁굳	-5379
▁굴	-5380
▁꼰	-5381
▁꽉	-5382
▁둔	-5383
▁뒹	-5384
▁뚫	-5385
▁라	-5386
▁렌	-5387
▁맴	-5388
▁맺	-5389
▁멘	-5390
▁몫	-5391
▁민	-5392
▁밉	-5393
▁뱃	-5394
▁벅	-5395
▁뻑	-5396
▁샌	-5397
▁씹	-5398
▁엇	-5399
▁엠	-5400
▁웹	-5401
▁윗	-5402
▁좌	-5403
▁쫄	-5404
▁찢	-5405
▁컸	-5406
▁콕	-5407
▁킁	-5408
▁탁	-5409
▁팍	-5410
▁품	-5411
▁핫	-5412
▁햇	-5413
▁험	-5414
▁훔	-5415
가가	-5416
가기	-5417
가능	-5418
가의	-5419
감당	-5420
강에	-5421
같애	-5422
걸음	-5423
게되	-5424
겠대	-5425
고있	-5426
공원	-5427
구경	-5428
구를	-5429
그만	-5430
극히	-5431
기에	-5432
기지	-5433
긴다	-5434
길만	-5435
꺼야	-5436
꼬박	-5437
네여	-5438
달이	-5439
대는	-5440
독한	-5441
드네	-5442
드위	-5443
듬어	-5444
라네	-5445
라니	-5446
랬다	-5447
런지	-5448
렀어	-5449
력서	-5450
력에	-5451
로그	-5452
르기	-5453
르지	-5454
름이	-5455
리죠	-5456
리필	-5457
린라	-5458
림을	-5459
마요	-5460
마자	-5461
만해	-5462
맛도	-5463
맛이	-5464
맥이	-5465
명한	-5466
문을	-5467
물을	-5468
밖은	-5469
받는	-5470
받을	-5471
발을	-5472
버린	-5473
보네	-5474
부의	-5475
뻑해	-5476
서와	-5477
설여	-5478
센터	-5479
소리	-5480
속에	-5481
수업	-5482
스트	-5483
시피	-5484
신발	-5485
쎄요	-5486
아리	-5487
아빠	-5488
안녕	-5489
야해	-5490
양말	-5491
양제	-5492
없네	-5493
에만	-5494
역이	-5495
였네	-5496
영상	-5497
오래	-5498
온다	-5499
올라	-5500
올려	-5501
왔다	-5502
우고	-5503
우지	-5504
운데	-5505
울렛	-5506
은것	-5507
이너	-5508
인줄	-5509
정녀	-5510
져서	-5511
조건	-5512
주일	-5513
지못	-5514
지부	-5515
지우	-5516
질뻔	-5517
질제	-5518
쪄도	-5519
찰텐	-5520
처리	-5521
총회	-5522
촬영	-5523
카드	-5524
콜록	-5525
터넷	-5526
테니	-5527
트남	-5528
트롤	-5529
티콘	-5530
프터	-5531
하며	-5532
하진	-5533
학금	-5534
한건	-5535
함에	-5536
해가	-5537
했나	-5538
향을	-5539
헤어	-5540
▁12	-5541
▁가게	-5542
▁간대	-5543
▁간직	-5544
▁감동	-5545
▁감출	-5546
▁강요	-5547
▁강제	-5548
▁갖게	-5549
▁같다	-5550
▁같음	-5551
▁개시	-5552
▁객관	-5553
▁갠톡	-5554
▁걔는	-5555
▁걷고	-5556
▁걷길	-5557
▁골프	-5558
▁공유	-5559
▁과연	-5560
▁구두	-5561
▁구별	-5562
▁구워	-5563
▁군인	-5564
▁귀로	-5565
▁그걸	-5566
▁그때	-5567
▁그땐	-5568
▁글자	-5569
▁길면	-5570
▁길지	-5571
▁깎아	-5572
▁꼬박	-5573
▁꼰대	-5574
▁끈을	-5575
▁끝냈	-5576
▁나나	-5577
▁나니	-5578
▁나야	-5579
▁남과	-5580
▁남들	-5581
▁낮잠	-5582
▁낳을	-5583
▁내면	-5584
▁내서	-5585
▁냉면	-5586
▁너가	-5587
▁너의	-5588
▁넣을	-5589
▁노려	-5590
▁놀까	-5591
▁농구	-5592
▁농담	-5593
▁놔둬	-5594
▁누락	-5595
▁눈높	-5596
▁늙어	-5597
▁다칠	-5598
▁단체	-5599
▁닮은	-5600
▁답은	-5601
▁당첨	-5602
▁당한	-5603
▁대수	-5604
▁대충	-5605
▁대피	-5606
▁데가	-5607
▁독이	-5608
▁돌려	-5609
▁돌면	-5610
▁되짚	-5611
▁두푼	-5612
▁뒤에	-5613
▁뒹굴	-5614
▁드릴	-5615
▁땀을	-5616
▁때매	-5617
▁때요	-5618
▁때죠	-5619
▁떠날	-5620
▁또한	-5621
▁똥차	-5622
▁뜨겁	-5623
▁띄는	-5624
▁롱디	-5625
▁리드	-5626
▁마른	-5627
▁마중	-5628
▁막막	-5629
▁만화	-5630
▁말걸	-5631
▁망함	-5632
▁맞아	-5633
▁먹먹	-5634
▁먹은	-5635
▁멈춰	-5636
▁멋져	-5637
▁목적	-5638
▁몰려	-5639
▁못자	-5640
▁무모	-5641
▁무언	-5642
▁문화	-5643
▁물이	-5644
▁뭐로	-5645
▁뭐지	-5646
▁뭐해	-5647
▁뭘로	-5648
▁미루	-5649
▁미팅	-5650
▁믿고	-5651
▁믿어	-5652
▁믿지	-5653
▁밀려	-5654
▁바꿨	-5655
▁바쁠	-5656
▁반에	-5657
▁반장	-5658
▁반한	-5659
▁발견	-5660
▁밥을	-5661
▁방금	-5662
▁배달	-5663
▁배신	-5664
▁백업	-5665
▁버는	-5666
▁버릇	-5667
▁베프	-5668
▁변신	-5669
▁병신	-5670
▁보란	-5671
▁보신	-5672
▁봐주	-5673
▁봤네	-5674
▁부질	-5675
▁불만	-5676
▁불효	-5677
▁브랜	-5678
▁블록	-5679
▁비워	-5680
▁뿌린	-5681
▁사도	-5682
▁사먹	-5683
▁사수	-5684
▁사전	-5685
▁사줘	-5686
▁사춘	-5687
▁사표	-5688
▁상종	-5689
▁생생	-5690
▁서점	-5691
▁선풍	-5692
▁설득	-5693
▁세어	-5694
▁소름	-5695
▁속박	-5696
▁손편	-5697
▁수건	-5698
▁수능	-5699
▁승진	-5700
▁시려	-5701
▁시선	-5702
▁실천	-5703
▁실패	-5704
▁실행	-5705
▁싸운	-5706
▁싸웠	-5707
▁쌓여	-5708
▁썸도	-5709
▁쓰일	-5710
▁아부	-5711
▁안고	-5712
▁안될	-5713
▁안맞	-5714
▁안부	-5715
▁안할	-5716
▁알까	-5717
▁애의	-5718
▁애인	-5719
▁액정	-5720
▁어흥	-5721
▁없고	-5722
▁엇갈	-5723
▁엠티	-5724
▁여쭤	-5725
▁역할	-5726
▁열어	-5727
▁열흘	-5728
▁영어	-5729
▁예능	-5730
▁예비	-5731
▁예상	-5732
▁예약	-5733
▁오길	-5734
▁오려	-5735
▁오바	-5736
▁오셨	-5737
▁옳은	-5738
▁와인	-5739
▁와플	-5740
▁왠지	-5741
▁외출	-5742
▁욕해	-5743
▁운이	-5744
▁울고	-5745
▁웃는	-5746
▁웃음	-5747
▁원동	-5748
▁원인	-5749
▁원치	-5750
▁월세	-5751
▁웨딩	-5752
▁웹툰	-5753
▁으아	-5754
▁음료	-5755
▁이끌	-5756
▁이왕	-5757
▁인상	-5758
▁인지	-5759
▁일기	-5760
▁일방	-5761
▁일부	-5762
▁일시	-5763
▁읽어	-5764
▁임용	-5765
▁입학	-5766
▁있대	-5767
▁잊기	-5768
▁자장	-5769
▁작동	-5770
▁잘라	-5771
▁잠들	-5772
▁잡념	-5773
▁장갑	-5774
▁적당	-5775
▁전과	-5776
▁전학	-5777
▁절친	-5778
▁정장	-5779
▁정정	-5780
▁제정	-5781
▁조가	-5782
▁졸린	-5783
▁좋긴	-5784
▁좋음	-5785
▁좌절	-5786
▁죄가	-5787
▁주량	-5788
▁주워	-5789
▁즐겨	-5790
▁증거	-5791
▁증명	-5792
▁지각	-5793
▁지낸	-5794
▁지속	-5795
▁지압	-5796
▁지적	-5797
▁지친	-5798
▁직업	-5799
▁직전	-5800
▁질려	-5801
▁질린	-5802
▁질문	-5803
▁짧죠	-5804
▁찍는	-5805
▁찍어	-5806
▁찢어	-5807
▁차인	-5808
▁참다	-5809
▁처리	-5810
▁청결	-5811
▁청춘	-5812
▁최신	-5813
▁최저	-5814
▁축제	-5815
▁춥네	-5816
▁친절	-5817
▁친척	-5818
▁침묵	-5819
▁커서	-5820
▁케익	-5821
▁킁킁	-5822
▁키울	-5823
▁타나	-5824
▁타러	-5825
▁타인	-5826
▁탈모	-5827
▁태연	-5828
▁터지	-5829
▁터질	-5830
▁토닥	-5831
▁톡이	-5832
▁파도	-5833
▁팍팍	-5834
▁패션	-5835
▁포맷	-5836
▁폭식	-5837
▁피로	-5838
▁필기	-5839
▁필수	-5840
▁하러	-5841
▁하아	-5842
▁학벌	-5843
▁한약	-5844
▁한푼	-5845
▁할지	-5846
▁합리	-5847
▁해로	-5848
▁해준	-5849
▁했을	-5850
▁허락	-5851
▁현타	-5852
▁혼수	-5853
▁확률	-5854
▁환기	-5855
▁황당	-5856
▁회의	-5857
▁훔쳐	-5858
▁휴학	-5859
▁흐른	-5860
개월차	-5861
건강에	-5862
겠네여	-5863
기간을	-5864
다는걸	-5865
다는데	-5866
되어야	-5867
드리는	-5868
드위치	-5869
들이랑	-5870
뜨리기	-5871
렵니다	-5872
마다의	-5873
바퀴만	-5874
보려고	-5875
봤는데	-5876
사람은	-5877
셨나요	-5878
시키는	-5879
야해요	-5880
어가길	-5881
여행이	-5882
였나요	-5883
왔으면	-5884
이니까	-5885
이었어	-5886
졌어요	-5887
줬더니	-5888
지능에	-5889
칼로리	-5890
하기가	-5891
하기로	-5892
하는건	-5893
하려면	-5894
할까요	-5895
해봐도	-5896
해졌죠	-5897
해줘서	-5898
해지길	-5899
해지네	-5900
했다고	-5901
했다면	-5902
했던거	-5903
했을까	-5904
▁가기로	-5905
▁가끔씩	-5906
▁가네요	-5907
▁가는게	-5908
▁가려고	-5909
▁가볍게	-5910
▁가봐요	-5911
▁가야돼	-5912
▁가족들	-5913
▁각질제	-5914
▁간만에	-5915
▁간절히	-5916
▁갈수록	-5917
▁감각이	-5918
▁감정기	-5919
▁갑니다	-5920
▁거겠지	-5921
▁거라면	-5922
▁건강을	-5923
▁건들지	-5924
▁걸음을	-5925
▁것이죠	-5926
▁겠지만	-5927
▁결과가	-5928
▁결국엔	-5929
▁결혼을	-5930
▁계기가	-5931
▁고시원	-5932
▁고양이	-5933
▁곳까지	-5934
▁곳이죠	-5935
▁관계의	-5936
▁괜찮길	-5937
▁괜찮다	-5938
▁구멍이	-5939
▁귀여울	-5940
▁그것도	-5941
▁그녀도	-5942
▁그런가	-5943
▁그런지	-5944
▁그린라	-5945
▁그만둬	-5946
▁근처로	-5947
▁글쎄요	-5948
▁기르고	-5949
▁기술이	-5950
▁기억에	-5951
▁기억은	-5952
▁기억해	-5953
▁기울여	-5954
▁기준이	-5955
▁깨달음	-5956
▁꼼수를	-5957
▁꽃길만	-5958
▁끊겼어	-5959
▁나가면	-5960
▁나는데	-5961
▁나오네	-5962
▁나올거	-5963
▁나왔네	-5964
▁나이에	-5965
▁나이테	-5966
▁남겨서	-5967
▁남아있	-5968
▁남이니	-5969
▁남자의	-5970
▁낭만이	-5971
▁내일을	-5972
▁내일이	-5973
▁노래는	-5974
▁누구야	-5975
▁다녀도	-5976
▁다르게	-5977
▁다르지	-5978
▁다리가	-5979
▁단맛도	-5980
▁달라요	-5981
▁답답할	-5982
▁답정녀	-5983
▁대기업	-5984
▁대청소	-5985
▁대화의	-5986
▁더워서	-5987
▁도전은	-5988
▁돌리는	-5989
▁돌아서	-5990
▁동영상	-5991
▁되려고	-5992
▁되려면	-5993
▁되어요	-5994
▁되었길	-5995
▁되었네	-5996
▁되었을	-5997
▁된다고	-5998
▁두세요	-5999
▁뒷감당	-6000
▁드려요	-6001
▁들이대	-6002
▁따듯한	-6003
▁따라가	-6004
▁때로는	-6005
▁때부터	-6006
▁떠나간	-6007
▁떨린다	-6008
▁떨어뜨	-6009
▁똑같애	-6010
▁뛰어넘	-6011
▁레시피	-6012
▁마시지	-6013
▁막히는	-6014
▁막힌다	-6015
▁만남은	-6016
▁만났던	-6017
▁만났든	-6018
▁만들기	-6019
▁만지지	-6020
▁많으시	-6021
▁많은가	-6022
▁많은걸	-6023
▁말아야	-6024
▁말해서	-6025
▁말해주	-6026
▁맘처럼	-6027
▁맛있다	-6028
▁맛있어	-6029
▁망설여	-6030
▁맞으면	-6031
▁매력을	-6032
▁먹거나	-6033
▁먹는데	-6034
▁먹어도	-6035
▁먹어야	-6036
▁멈추지	-6037
▁메뉴얼	-6038
▁면도기	-6039
▁면역이	-6040
▁명상을	-6041
▁모습도	-6042
▁모자라	-6043
▁몸에는	-6044
▁무시해	-6045
▁무의식	-6046
▁무조건	-6047
▁문제죠	-6048
▁뭐하나	-6049
▁뭐하면	-6050
▁미래를	-6051
▁미련을	-6052
▁미용실	-6053
▁발전이	-6054
▁방법도	-6055
▁배울까	-6056
▁버리는	-6057
▁버스가	-6058
▁버티고	-6059
▁벅찰텐	-6060
▁베트남	-6061
▁베풀고	-6062
▁변해요	-6063
▁변화도	-6064
▁보기로	-6065
▁보내지	-6066
▁보냈네	-6067
▁보답을	-6068
▁보름달	-6069
▁보일러	-6070
▁부분을	-6071
▁부족해	-6072
▁불안해	-6073
▁불편한	-6074
▁붙잡는	-6075
▁붙잡아	-6076
▁비밀은	-6077
▁비밀을	-6078
▁비세요	-6079
▁비싸요	-6080
▁빠르면	-6081
▁빠지면	-6082
▁뻑뻑해	-6083
▁사과할	-6084
▁사귀어	-6085
▁사람인	-6086
▁사랑니	-6087
▁사이로	-6088
▁산책을	-6089
▁살쪄도	-6090
▁새신발	-6091
▁생각도	-6092
▁생겨서	-6093
▁선택이	-6094
▁설레는	-6095
▁설렘이	-6096
▁성공한	-6097
▁성별을	-6098
▁성적이	-6099
▁센터에	-6100
▁소리를	-6101
▁소문이	-6102
▁소소한	-6103
▁소액결	-6104
▁소화가	-6105
▁속시원	-6106
▁속이는	-6107
▁손가락	-6108
▁술마시	-6109
▁술한잔	-6110
▁쉽지가	-6111
▁스키장	-6112
▁시선을	-6113
▁시작할	-6114
▁식습관	-6115
▁싫어요	-6116
▁심심해	-6117
▁싶으면	-6118
▁싸우고	-6119
▁싸웠어	-6120
▁썸녀가	-6121
▁썸타고	-6122
▁쓰려고	-6123
▁쓰면서	-6124
▁쓰이는	-6125
▁아껴뒀	-6126
▁아는거	-6127
▁아니길	-6128
▁아니네	-6129
▁아니지	-6130
▁아쉬운	-6131
▁아울렛	-6132
▁아이디	-6133
▁아프게	-6134
▁아픔도	-6135
▁안받아	-6136
▁안부를	-6137
▁안좋아	-6138
▁안좋은	-6139
▁안타까	-6140
▁않았길	-6141
▁않지요	-6142
▁알겠어	-6143
▁알뜰폰	-6144
▁알바생	-6145
▁알아볼	-6146
▁앞에선	-6147
▁애매한	-6148
▁애틋한	-6149
▁애프터	-6150
▁야경이	-6151
▁어느새	-6152
▁어떡함	-6153
▁어렵다	-6154
▁어리석	-6155
▁어쩌면	-6156
▁어플로	-6157
▁어플을	-6158
▁언니랑	-6159
▁얼굴에	-6160
▁엄마랑	-6161
▁없는지	-6162
▁없지요	-6163
▁여러명	-6164
▁여자로	-6165
▁연락도	-6166
▁연애중	-6167
▁연인과	-6168
▁염색을	-6169
▁영양제	-6170
▁예감은	-6171
▁예민해	-6172
▁예뻐질	-6173
▁예의일	-6174
▁오니까	-6175
▁오디션	-6176
▁오라고	-6177
▁오해가	-6178
▁옷이요	-6179
▁외롭고	-6180
▁욕하고	-6181
▁용기내	-6182
▁우산에	-6183
▁우연이	-6184
▁우정이	-6185
▁운동할	-6186
▁월급날	-6187
▁월급은	-6188
▁위로를	-6189
▁위험한	-6190
▁위험해	-6191
▁유부녀	-6192
▁의심해	-6193
▁이기니	-6194
▁이러는	-6195
▁이력서	-6196
▁이별중	-6197
▁이별할	-6198
▁이사를	-6199
▁이어질	-6200
▁이어폰	-6201
▁이유로	-6202
▁이해를	-6203
▁이해못	-6204
▁인내할	-6205
▁인맥이	-6206
▁인생의	-6207
▁인터넷	-6208
▁일요일	-6209
▁일인지	-6210
▁입냄새	-6211
▁잇몸약	-6212
▁있거나	-6213
▁있겠다	-6214
▁있군요	-6215
▁있냐고	-6216
▁있었어	-6217
▁잊지못	-6218
▁잊혀져	-6219
▁자다가	-6220
▁자신은	-6221
▁자야지	-6222
▁자장면	-6223
▁잘생겼	-6224
▁잘지내	-6225
▁잘하면	-6226
▁잡아도	-6227
▁장학금	-6228
▁재밌을	-6229
▁저녁에	-6230
▁전여자	-6231
▁전하지	-6232
▁접는게	-6233
▁접어야	-6234
▁정리해	-6235
▁정신이	-6236
▁정해져	-6237
▁조심히	-6238
▁조절을	-6239
▁존중해	-6240
▁종교의	-6241
▁좋네요	-6242
▁좋대요	-6243
▁좋아서	-6244
▁좋았던	-6245
▁좋은거	-6246
▁좋을거	-6247
▁주저리	-6248
▁준다면	-6249
▁준비할	-6250
▁즐거울	-6251
▁즐겁게	-6252
▁즐기는	-6253
▁지극히	-6254
▁지금의	-6255
▁지루해	-6256
▁지웠어	-6257
▁지진시	-6258
▁지쳐서	-6259
▁지칠만	-6260
▁진실된	-6261
▁짝녀를	-6262
▁짠하고	-6263
▁찌질한	-6264
▁참았어	-6265
▁채워질	-6266
▁초기화	-6267
▁최고의	-6268
▁최악의	-6269
▁추천해	-6270
▁커플링	-6271
▁커피가	-6272
▁커피는	-6273
▁케이스	-6274
▁콩깍지	-6275
▁키우는	-6276
▁틀리는	-6277
▁파도가	-6278
▁편의점	-6279
▁포기가	-6280
▁풀어야	-6281
▁피하는	-6282
▁피해만	-6283
▁하나죠	-6284
▁하다니	-6285
▁하루는	-6286
▁하지도	-6287
▁한국도	-6288
▁한번더	-6289
▁한번쯤	-6290
▁한심해	-6291
▁할까요	-6292
▁함께도	-6293
▁해결될	-6294
▁해줄까	-6295
▁행동은	-6296
▁허리가	-6297
▁헤아릴	-6298
▁헷갈리	-6299
▁호랑이	-6300
▁호의를	-6301
▁혼자를	-6302
▁화장이	-6303
▁후회만	-6304
▁후회해	-6305
▁휴식도	-6306
▁흐르는	-6307
▁흘러가	-6308
▁희망은	-6309
▁희망이	-6310
▁힘들까	-6311
기만해도	-6312
드시거나	-6313
리겠어요	-6314
받으세요	-6315
보이네요	-6316
사람친구	-6317
성이에요	-6318
시나봐요	-6319
시는구나	-6320
실거예요	-6321
어두세요	-6322
있습니다	-6323
적이네요	-6324
지마세요	-6325
체적으로	-6326
하나봐요	-6327
하셨어요	-6328
해야할지	-6329
해졌어요	-6330
▁가능하죠	-6331
▁가능한가	-6332
▁가리세요	-6333
▁가족한테	-6334
▁간사하죠	-6335
▁감사하는	-6336
▁감으세요	-6337
▁갑작스럽	-6338
▁거짓말은	-6339
▁거짓말을	-6340
▁걱정이야	-6341
▁건강습관	-6342
▁건강하게	-6343
▁견뎌내고	-6344
▁결혼준비	-6345
▁결혼하고	-6346
▁결혼하기	-6347
▁결혼해야	-6348
▁고마움을	-6349
▁고민이죠	-6350
▁공부하면	-6351
▁과식하지	-6352
▁관심사에	-6353
▁괜찮겠지	-6354
▁괜찮을거	-6355
▁교양수업	-6356
▁그렇겠죠	-6357
▁금수저로	-6358
▁기다려도	-6359
▁기다리던	-6360
▁기본으로	-6361
▁기본이죠	-6362
▁깔끔해질	-6363
▁깨닫다니	-6364
▁꼬박꼬박	-6365
▁나겠네요	-6366
▁날이네요	-6367
▁남았네요	-6368
▁남이에요	-6369
▁남자분들	-6370
▁남자에게	-6371
▁남친이랑	-6372
▁낭만적인	-6373
▁너무나도	-6374
▁너무너무	-6375
▁넘어가네	-6376
▁넘었는데	-6377
▁놀이공원	-6378
▁높겠네요	-6379
▁놓으세요	-6380
▁눈높이가	-6381
▁늦었어요	-6382
▁다녀왔어	-6383
▁다릅니다	-6384
▁다하세요	-6385
▁단체생활	-6386
▁단호하게	-6387
▁달라져요	-6388
▁달라지지	-6389
▁당분간은	-6390
▁당신만이	-6391
▁데이트가	-6392
▁동생한테	-6393
▁드립니다	-6394
▁들리려고	-6395
▁들어가서	-6396
▁떨어지는	-6397
▁마셨는데	-6398
▁마음에서	-6399
▁마음이랑	-6400
▁만난다면	-6401
▁만화같은	-6402
▁맡기세요	-6403
▁먹었더니	-6404
▁멀어지면	-6405
▁멈추세요	-6406
▁메모하는	-6407
▁모두에게	-6408
▁모아야할	-6409
▁목표네요	-6410
▁무너져요	-6411
▁무섭나요	-6412
▁무한리필	-6413
▁문제네요	-6414
▁물어봐도	-6415
▁미안하다	-6416
▁바쁜일이	-6417
▁반가워요	-6418
▁받으세요	-6419
▁벗어나는	-6420
▁변화시켜	-6421
▁보내시길	-6422
▁보다보면	-6423
▁보일러가	-6424
▁보험처리	-6425
▁부모님을	-6426
▁분위기를	-6427
▁불공평해	-6428
▁비교하면	-6429
▁비밀연애	-6430
▁비정규직	-6431
▁비행기표	-6432
▁뿌린대로	-6433
▁사람이다	-6434
▁사람이야	-6435
▁사람하고	-6436
▁사랑이죠	-6437
▁사랑인지	-6438
▁사랑할까	-6439
▁사생활이	-6440
▁살아있음	-6441
▁상대방의	-6442
▁샌드위치	-6443
▁생각들을	-6444
▁생각하게	-6445
▁생겼어요	-6446
▁생긴다는	-6447
▁선물하면	-6448
▁선생님께	-6449
▁소유하는	-6450
▁쇼핑하고	-6451
▁수면양말	-6452
▁쉬어가도	-6453
▁스타일이	-6454
▁스테이크	-6455
▁슬퍼하고	-6456
▁습관처럼	-6457
▁시간내서	-6458
▁시기네요	-6459
▁신경쓰고	-6460
▁신경쓰면	-6461
▁신경쓰이	-6462
▁신고하고	-6463
▁심어볼까	-6464
▁심해지는	-6465
▁싶어하는	-6466
▁썸녀한테	-6467
▁쓸데없는	-6468
▁아름답죠	-6469
▁아쉬움이	-6470
▁아침부터	-6471
▁아팠으면	-6472
▁안타깝게	-6473
▁안해먹고	-6474
▁않겠네요	-6475
▁알아보는	-6476
▁어느정도	-6477
▁어둠에서	-6478
▁어떠세요	-6479
▁어떡하죠	-6480
▁어머어머	-6481
▁어찌해야	-6482
▁엄마아빠	-6483
▁없는걸까	-6484
▁없답니다	-6485
▁없어졌어	-6486
▁에너지가	-6487
▁에너지를	-6488
▁여자에게	-6489
▁여친에게	-6490
▁연락왔어	-6491
▁연락할까	-6492
▁연애세포	-6493
▁염탐하지	-6494
▁오래오래	-6495
▁올거예요	-6496
▁왜이렇게	-6497
▁외로움을	-6498
▁용서하고	-6499
▁웃으면서	-6500
▁원동력이	-6501
▁원인이죠	-6502
▁원한다면	-6503
▁유효기간	-6504
▁의식하는	-6505
▁이름이랑	-6506
▁이모티콘	-6507
▁이별하는	-6508
▁이불밖은	-6509
▁이상적인	-6510
▁이어보고	-6511
▁이어주는	-6512
▁이왕이면	-6513
▁이제서야	-6514
▁이해하고	-6515
▁이해하기	-6516
▁익숙해져	-6517
▁인생에서	-6518
▁인지시켜	-6519
▁인테리어	-6520
▁일어나면	-6521
▁일하면서	-6522
▁입으세요	-6523
▁있는걸까	-6524
▁있답니다	-6525
▁있으세요	-6526
▁잊어가는	-6527
▁잊혀질까	-6528
▁잘지내고	-6529
▁잠재력을	-6530
▁재미있어	-6531
▁재밌는거	-6532
▁저마다의	-6533
▁정신없이	-6534
▁존중하고	-6535
▁졸업식에	-6536
▁좋아지고	-6537
▁좋아지는	-6538
▁지금부터	-6539
▁지하철에	-6540
▁집에서도	-6541
▁짜증나네	-6542
▁차였는데	-6543
▁찾아가는	-6544
▁찾아봐요	-6545
▁찾아오는	-6546
▁챙겨주면	-6547
▁챙기세요	-6548
▁취미네요	-6549
▁취직하면	-6550
▁친구들을	-6551
▁친구라면	-6552
▁친구인데	-6553
▁친해지는	-6554
▁컴퓨터가	-6555
▁클럽에서	-6556
▁판단되면	-6557
▁표현하지	-6558
▁피부관리	-6559
▁필요하지	-6560
▁하느냐에	-6561
▁하니까요	-6562
▁하다보니	-6563
▁하셨군요	-6564
▁하지말고	-6565
▁한가지만	-6566
▁한답니다	-6567
▁한바퀴만	-6568
▁함께하고	-6569
▁합리적인	-6570
▁해결되길	-6571
▁해보려고	-6572
▁해봤는데	-6573
▁해야겠지	-6574
▁핸드폰이	-6575
▁헤어짐은	-6576
▁헬스장에	-6577
▁헷갈리네	-6578
▁형편대로	-6579
▁혼자해도	-6580
▁확인하는	-6581
▁후련하네	-6582
▁후련하니	-6583
▁후회하는	-6584
▁후회할까	-6585
▁힘들겠죠	-6586
▁힘들지만	-6587
원해보세요	-6588
조심하세요	-6589
하셨겠어요	-6590
한가봅니다	-6591
▁가능하다고	-6592
▁가족들이랑	-6593
▁간직하세요	-6594
▁갑작스러운	-6595
▁결혼적령기	-6596
▁고민하느라	-6597
▁고백하는게	-6598
▁고백하세요	-6599
▁공부하세요	-6600
▁공부해야지	-6601
▁괜찮아지고	-6602
▁그린라이트	-6603
▁기다리세요	-6604
▁기다릴게요	-6605
▁끝났습니다	-6606
▁나갈거예요	-6607
▁나눠보는게	-6608
▁나쁜거예요	-6609
▁남자입니다	-6610
▁놀랐겠어요	-6611
▁놀랐나봐요	-6612
▁놀러가세요	-6613
▁다가가세요	-6614
▁다행이네요	-6615
▁대단하네요	-6616
▁대피방법을	-6617
▁덜어보세요	-6618
▁데려가세요	-6619
▁도와달라고	-6620
▁동감입니다	-6621
▁두근거림을	-6622
▁드려보세요	-6623
▁들려주세요	-6624
▁들었겠네요	-6625
▁따뜻해졌죠	-6626
▁로봇이에요	-6627
▁만남이네요	-6628
▁만들었어요	-6629
▁망가뜨리기	-6630
▁밀어보세요	-6631
▁바람이라도	-6632
▁받아들여야	-6633
▁벅찰텐대요	-6634
▁병원가세요	-6635
▁보냈습니다	-6636
▁불편하겠죠	-6637
▁비하하지는	-6638
▁사랑스러운	-6639
▁사랑이라는	-6640
▁사랑이에요	-6641
▁사랑하니까	-6642
▁삭제하는게	-6643
▁상관없지만	-6644
▁생각이네요	-6645
▁생각한대로	-6646
▁생각할게요	-6647
▁생각할수록	-6648
▁생겼을지도	-6649
▁선물이네요	-6650
▁선택이었을	-6651
▁성공적으로	-6652
▁세워보세요	-6653
▁소개팅으로	-6654
▁소개팅하고	-6655
▁소중합니다	-6656
▁스타트업에	-6657
▁스트레스를	-6658
▁스트레스야	-6659
▁스트레스의	-6660
▁시간이네요	-6661
▁시켜달라고	-6662
▁아직이라면	-6663
▁알아두세요	-6664
▁알아차려도	-6665
▁알아차리지	-6666
▁애정표현일	-6667
▁없애주세요	-6668
▁없으니까요	-6669
▁여쭤보세요	-6670
▁여행이네요	-6671
▁연락이라도	-6672
▁연락하는게	-6673
▁연락하라고	-6674
▁연락해보는	-6675
▁연락해봐요	-6676
▁오늘이에요	-6677
▁운동하세요	-6678
▁움직이세요	-6679
▁위해서예요	-6680
▁응원할게요	-6681
▁이야기하고	-6682
▁이야기하는	-6683
▁이어나가는	-6684
▁인공지능에	-6685
▁일어나세요	-6686
▁있었을지도	-6687
▁자체만으로	-6688
▁잘못입니다	-6689
▁잡아보세요	-6690
▁재밌겠어요	-6691
▁점심시간에	-6692
▁정리하세요	-6693
▁정신건강에	-6694
▁정정기간을	-6695
▁제자리걸음	-6696
▁조급해지면	-6697
▁졸업하는데	-6698
▁좋으시네요	-6699
▁주의하세요	-6700
▁준비하기는	-6701
▁준비하느라	-6702
▁지저분해요	-6703
▁직접적으로	-6704
▁질러보세요	-6705
▁청소하세요	-6706
▁치료하세요	-6707
▁친구들한테	-6708
▁친해지는게	-6709
▁칭찬이네요	-6710
▁칭찬해주고	-6711
▁포장하는게	-6712
▁표현해보는	-6713
▁하루하루가	-6714
▁하우스웨딩	-6715
▁해드릴게요	-6716
▁해야겠네여	-6717
▁행복하세요	-6718
▁행복해보여	-6719
▁호랑이보다	-6720
▁확실해지면	-6721
▁흘려보세요	-6722
▁힘드니까요	-6723
▁간절하겠네요	-6724
▁개시해보세요	-6725
▁걱정되겠어요	-6726
▁결정했나봐요	-6727
▁극복해보세요	-6728
▁낳을뿐이에요	-6729
▁넓으신가봐요	-6730
▁놔둬야하는데	-6731
▁대단하시군요	-6732
▁되짚어보세요	-6733
▁많았나봅니다	-6734
▁부딪혔나봐요	-6735
▁부탁드립니다	-6736
▁분담해보세요	-6737
▁사랑하는지는	-6738
▁삭제해보세요	-6739
▁아껴뒀나봐요	-6740
▁연락두절돼서	-6741
▁운동해보세요	-6742
▁위로해드리는	-6743
▁이해해보세요	-6744
▁재미있나봐요	-6745
▁절약되겠네요	-6746
▁정신차리세요	-6747
▁존중해주세요	-6748
▁챙겨드시거나	-6749
▁축하해주세요	-6750
▁포맷해보세요	-6751
▁피곤했나봐요	-6752
▁필요해보여요	-6753
▁확인해달라고	-6754
▁힘드시겠어요	-6755
▁걱정하지마세요	-6756
▁결정이었을거라	-6757
▁말씀드려보세요	-6758
▁부담스러워할까	-6759
▁적응해야겠네요	-6760
▁좋아하시는구나	-6761
▁프로포즈해보세요	-6762
▁0	-6763
▁갱	-6764
▁겉	-6765
▁곤	-6766
▁깍	-6767
▁깰	-6768
▁껴	-6769
▁꽝	-6770
▁꿔	-6771
▁꿰	-6772
▁낸	-6773
▁넋	-6774
▁뇌	-6775
▁눌	-6776
▁눕	-6777
▁는	-6778
▁덥	-6779
▁돋	-6780
▁돕	-6781
▁뒀	-6782
▁떼	-6783
▁뜬	-6784
▁묘	-6785
▁박	-6786
▁벤	-6787
▁볶	-6788
▁빛	-6789
▁뻐	-6790
▁뽀	-6791
▁숫	-6792
▁쌍	-6793
▁앱	-6794
▁얽	-6795
▁엊	-6796
▁엿	-6797
▁욜	-6798
▁워	-6799
▁떴	-6800
▁잼	-6801
▁젤	-6802
▁쥐	-6803
▁짰	-6804
▁쪄	-6805
▁쭉	-6806
▁춘	-6807
▁캬	-6808
▁턱	-6809
▁텀	-6810
▁텅	-6811
▁퇴	-6812
▁틈	-6813
▁팁	-6814
▁팩	-6815
▁펴	-6816
▁헐	-6817
▁헥	-6818
▁헹	-6819
▁홈	-6820
▁홧	-6821
▁흠	-6822
▁히	-6823
가서	-6824
가에	-6825
가한	-6826
간대	-6827
간질	-6828
갔다	-6829
거든	-6830
걸이	-6831
겁한	-6832
게해	-6833
경이	-6834
계절	-6835
고의	-6836
과류	-6837
구로	-6838
그램	-6839
그런	-6840
극이	-6841
근한	-6842
근해	-6843
긋지	-6844
긋한	-6845
기다	-6846
기사	-6847
기한	-6848
길래	-6849
꺼풀	-6850
꼈어	-6851
꾸던	-6852
꾸로	-6853
났을	-6854
낭비	-6855
내길	-6856
너덜	-6857
년만	-6858
년반	-6859
년사	-6860
년전	-6861
놓지	-6862
는다	-6863
니깐	-6864
님들	-6865
다운	-6866
닥을	-6867
달래	-6868
답이	-6869
더군	-6870
도라	-6871
독여	-6872
동거	-6873
동물	-6874
동차	-6875
됐네	-6876
된다	-6877
됬네	-6878
두리	-6879
들의	-6880
따로	-6881
때문	-6882
땜에	-6883
떨떨	-6884
란다	-6885
량의	-6886
려는	-6887
렸다	-6888
로라	-6889
로션	-6890
로잡	-6891
르몬	-6892
른다	-6893
릴있	-6894
마디	-6895
만남	-6896
망이	-6897
먹을	-6898
문득	-6899
물주	-6900
미고	-6901
바구	-6902
받은	-6903
발이	-6904
방비	-6905
버림	-6906
번을	-6907
번의	-6908
베리	-6909
보낼	-6910
보려	-6911
볶이	-6912
봐야	-6913
부르	-6914
부한	-6915
불러	-6916
뿐이	-6917
사이	-6918
사자	-6919
사진	-6920
상일	-6921
샜어	-6922
서요	-6923
서히	-6924
선배	-6925
설계	-6926
섭섭	-6927
성에	-6928
성을	-6929
셨어	-6930
소짓	-6931
수건	-6932
스레	-6933
시도	-6934
시방	-6935
시에	-6936
시지	-6937
신가	-6938
신고	-6939
신청	-6940
실에	-6941
실을	-6942
싶네	-6943
싸움	-6944
썸남	-6945
아파	-6946
안나	-6947
안할	-6948
액션	-6949
약이	-6950
었나	-6951
었는	-6952
었지	-6953
여도	-6954
여서	-6955
여주	-6956
연이	-6957
오게	-6958
오늘	-6959
오지	-6960
올까	-6961
와도	-6962
욕탕	-6963
용품	-6964
워시	-6965
워야	-6966
웠던	-6967
은지	-6968
의별	-6969
의의	-6970
이상	-6971
이진	-6972
이집	-6973
인공	-6974
일은	-6975
임금	-6976
임말	-6977
잊혀	-6978
자가	-6979
잔치	-6980
쟁이	-6981
저히	-6982
적일	-6983
점이	-6984
좋아	-6985
주에	-6986
주의	-6987
주인	-6988
준대	-6989
줘도	-6990
줘서	-6991
즈를	-6992
지질	-6993
직이	-6994
질때	-6995
짼데	-6996
차게	-6997
찰랑	-6998
채기	-6999
천번	-7000
체가	-7001
쳐서	-7002
쳤다	-7003
초가	-7004
초에	-7005
치료	-7006
커플	-7007
코인	-7008
키기	-7009
타는	-7010
탈까	-7011
탈이	-7012
탔어	-7013
통이	-7014
통제	-7015
트로	-7016
트를	-7017
편이	-7018
평가	-7019
폭발	-7020
피해	-7021
학원	-7022
한대	-7023
한듯	-7024
할래	-7025
할수	-7026
혔어	-7027
활용	-7028
효도	-7029
휴일	-7030
히나	-7031
▁11	-7032
▁가본	-7033
▁가시	-7034
▁가입	-7035
▁가자	-7036
▁간섭	-7037
▁간질	-7038
▁갈궈	-7039
▁갈등	-7040
▁갔나	-7041
▁거도	-7042
▁거둬	-7043
▁거에	-7044
▁거였	-7045
▁건데	-7046
▁걸요	-7047
▁겁나	-7048
▁것에	-7049
▁것일	-7050
▁겠지	-7051
▁격식	-7052
▁견적	-7053
▁계산	-7054
▁계약	-7055
▁고집	-7056
▁곤두	-7057
▁골랐	-7058
▁공간	-7059
▁공복	-7060
▁공황	-7061
▁관찰	-7062
▁구매	-7063
▁구박	-7064
▁굳이	-7065
▁그나	-7066
▁그도	-7067
▁그림	-7068
▁그의	-7069
▁그지	-7070
▁그쪽	-7071
▁근교	-7072
▁근데	-7073
▁기네	-7074
▁기름	-7075
▁기쁨	-7076
▁기침	-7077
▁길을	-7078
▁김에	-7079
▁까아	-7080
▁깨진	-7081
▁깨짐	-7082
▁꾸죠	-7083
▁끊기	-7084
▁끊는	-7085
▁끊어	-7086
▁끌지	-7087
▁끝의	-7088
▁나게	-7089
▁나란	-7090
▁나빴	-7091
▁난감	-7092
▁날짜	-7093
▁남녀	-7094
▁낮술	-7095
▁내딛	-7096
▁내맘	-7097
▁너덜	-7098
▁너랑	-7099
▁넘게	-7100
▁넘넘	-7101
▁넘은	-7102
▁노잼	-7103
▁놀자	-7104
▁놓는	-7105
▁놓지	-7106
▁누워	-7107
▁느꼈	-7108
▁늘어	-7109
▁다듬	-7110
▁답을	-7111
▁대상	-7112
▁대쉬	-7113
▁덥다	-7114
▁데도	-7115
▁데서	-7116
▁돕는	-7117
▁돼서	-7118
▁돼지	-7119
▁되게	-7120
▁될지	-7121
▁두렵	-7122
▁둘다	-7123
▁드려	-7124
▁듣는	-7125
▁들게	-7126
▁듯한	-7127
▁따끔	-7128
▁따져	-7129
▁딱히	-7130
▁딴짓	-7131
▁때인	-7132
▁떨고	-7133
▁뜨끈	-7134
▁뜨는	-7135
▁라는	-7136
▁마라	-7137
▁만한	-7138
▁말과	-7139
▁말만	-7140
▁말자	-7141
▁망상	-7142
▁망한	-7143
▁맞게	-7144
▁맞을	-7145
▁맞이	-7146
▁맞출	-7147
▁매몰	-7148
▁매운	-7149
▁매정	-7150
▁먹기	-7151
▁먹나	-7152
▁멈출	-7153
▁멋질	-7154
▁메리	-7155
▁모여	-7156
▁몸과	-7157
▁몸살	-7158
▁못난	-7159
▁못생	-7160
▁무지	-7161
▁미운	-7162
▁믿는	-7163
▁믿음	-7164
▁밑바	-7165
▁바란	-7166
▁바래	-7167
▁반영	-7168
▁받네	-7169
▁받았	-7170
▁받음	-7171
▁발라	-7172
▁발이	-7173
▁밤만	-7174
▁밤새	-7175
▁밥은	-7176
▁배가	-7177
▁배정	-7178
▁백수	-7179
▁뱃살	-7180
▁버림	-7181
▁번만	-7182
▁벌레	-7183
▁벌면	-7184
▁법을	-7185
▁벗겨	-7186
▁벗어	-7187
▁벤츠	-7188
▁병행	-7189
▁보수	-7190
▁보약	-7191
▁보임	-7192
▁보자	-7193
▁부케	-7194
▁부팅	-7195
▁분양	-7196
▁불순	-7197
▁불쑥	-7198
▁블랙	-7199
▁비만	-7200
▁비쌈	-7201
▁비오	-7202
▁비와	-7203
▁비용	-7204
▁비친	-7205
▁비트	-7206
▁비해	-7207
▁비혼	-7208
▁빌어	-7209
▁빼앗	-7210
▁사무	-7211
▁살려	-7212
▁살죠	-7213
▁삶에	-7214
▁삶은	-7215
▁샀다	-7216
▁서울	-7217
▁서핑	-7218
▁선배	-7219
▁설계	-7220
▁설렐	-7221
▁설마	-7222
▁세달	-7223
▁세탁	-7224
▁속아	-7225
▁속지	-7226
▁수십	-7227
▁수제	-7228
▁숙제	-7229
▁숙취	-7230
▁숫자	-7231
▁쉬다	-7232
▁스노	-7233
▁스쳐	-7234
▁스케	-7235
▁슬플	-7236
▁시급	-7237
▁식사	-7238
▁식욕	-7239
▁식은	-7240
▁식혀	-7241
▁실용	-7242
▁심난	-7243
▁심남	-7244
▁심쿵	-7245
▁싸울	-7246
▁쌓인	-7247
▁쏟아	-7248
▁쓰게	-7249
▁쓰면	-7250
▁쓰이	-7251
▁씨씨	-7252
▁아끼	-7253
▁아날	-7254
▁아냐	-7255
▁아놔	-7256
▁아래	-7257
▁아려	-7258
▁안풀	-7259
▁안한	-7260
▁않기	-7261
▁않으	-7262
▁알긴	-7263
▁애완	-7264
▁야구	-7265
▁야식	-7266
▁약점	-7267
▁양을	-7268
▁양치	-7269
▁얘는	-7270
▁어딘	-7271
▁어언	-7272
▁어째	-7273
▁억울	-7274
▁없앨	-7275
▁에이	-7276
▁엮여	-7277
▁연상	-7278
▁연하	-7279
▁열받	-7280
▁영통	-7281
▁예고	-7282
▁예쁠	-7283
▁예정	-7284
▁예측	-7285
▁오죠	-7286
▁옥상	-7287
▁올게	-7288
▁옷은	-7289
▁와요	-7290
▁왜케	-7291
▁요청	-7292
▁욕을	-7293
▁욜로	-7294
▁용량	-7295
▁우습	-7296
▁웃게	-7297
▁웃고	-7298
▁원해	-7299
▁위축	-7300
▁유료	-7301
▁유통	-7302
▁으으	-7303
▁의존	-7304
▁이래	-7305
▁일과	-7306
▁일인	-7307
▁있던	-7308
▁잊자	-7309
▁자다	-7310
▁자요	-7311
▁자제	-7312
▁잘됐	-7313
▁잘한	-7314
▁잠식	-7315
▁장점	-7316
▁저기	-7317
▁저만	-7318
▁저음	-7319
▁저장	-7320
▁저주	-7321
▁저편	-7322
▁적은	-7323
▁적을	-7324
▁전할	-7325
▁절망	-7326
▁접은	-7327
▁접촉	-7328
▁정열	-7329
▁정이	-7330
▁젖은	-7331
▁제습	-7332
▁조별	-7333
▁졸라	-7334
▁종종	-7335
▁종지	-7336
▁좋네	-7337
▁주길	-7338
▁줄도	-7339
▁줄일	-7340
▁중문	-7341
▁중이	-7342
▁줘야	-7343
▁즐길	-7344
▁지날	-7345
▁지수	-7346
▁지지	-7347
▁직후	-7348
▁질긴	-7349
▁쪼금	-7350
▁찔려	-7351
▁찬물	-7352
▁찼어	-7353
▁찾은	-7354
▁천국	-7355
▁초라	-7356
▁총회	-7357
▁추가	-7358
▁춥고	-7359
▁충실	-7360
▁취소	-7361
▁치마	-7362
▁친군	-7363
▁카공	-7364
▁크기	-7365
▁타면	-7366
▁탄다	-7367
▁태그	-7368
▁톡을	-7369
▁통장	-7370
▁투잡	-7371
▁페메	-7372
▁편린	-7373
▁편해	-7374
▁평범	-7375
▁표출	-7376
▁풀고	-7377
▁풀리	-7378
▁하객	-7379
▁하니	-7380
▁하필	-7381
▁학기	-7382
▁한결	-7383
▁한눈	-7384
▁한데	-7385
▁할게	-7386
▁할말	-7387
▁할인	-7388
▁핫한	-7389
▁해가	-7390
▁했네	-7391
▁허기	-7392
▁헌신	-7393
▁헛된	-7394
▁헥헥	-7395
▁현관	-7396
▁혼나	-7397
▁혼내	-7398
▁혼밥	-7399
▁혼인	-7400
▁화나	-7401
▁화난	-7402
▁화학	-7403
▁화해	-7404
▁효도	-7405
▁훈훈	-7406
▁휘둘	-7407
▁흐려	-7408
▁히스	-7409
▁힘겨	-7410
▁힘은	-7411
가기도	-7412
가보다	-7413
갔네요	-7414
같네요	-7415
겁니다	-7416
게되네	-7417
그리고	-7418
기간이	-7419
기한이	-7420
나가는	-7421
난다고	-7422
난다면	-7423
날인데	-7424
년간의	-7425
년동안	-7426
년인데	-7427
년하고	-7428
는다고	-7429
는다는	-7430
는데는	-7431
는지도	-7432
다는것	-7433
다는게	-7434
다니는	-7435
달라는	-7436
당하는	-7437
당했어	-7438
도라의	-7439
독하고	-7440
드리러	-7441
때문에	-7442
라고는	-7443
렸으면	-7444
만나고	-7445
망이지	-7446
방법이	-7447
버리네	-7448
보려구	-7449
보셔요	-7450
보이나	-7451
빛으로	-7452
사진을	-7453
생각이	-7454
소짓게	-7455
속에서	-7456
스러웠	-7457
스럽네	-7458
스타일	-7459
시나요	-7460
싶네요	-7461
았다고	-7462
았더니	-7463
았어요	-7464
야겠어	-7465
야겠지	-7466
어진다	-7467
없어요	-7468
었다면	-7469
었을까	-7470
었지만	-7471
였는지	-7472
였을까	-7473
오는날	-7474
옵니다	-7475
왔네요	-7476
으라고	-7477
을때는	-7478
이나마	-7479
이면서	-7480
이야기	-7481
이지요	-7482
인거죠	-7483
인트가	-7484
있어요	-7485
있을까	-7486
자마자	-7487
적이면	-7488
지나봐	-7489
지부지	-7490
질까봐	-7491
플라워	-7492
하겠어	-7493
하다니	-7494
한거니	-7495
한다고	-7496
해보는	-7497
해져도	-7498
해지고	-7499
했나요	-7500
했다는	-7501
▁100	-7502
▁가거나	-7503
▁가라앉	-7504
▁가량의	-7505
▁가리는	-7506
▁가스비	-7507
▁가슴은	-7508
▁가치가	-7509
▁간절한	-7510
▁감정도	-7511
▁갔는지	-7512
▁갖자는	-7513
▁같다면	-7514
▁같으면	-7515
▁개인의	-7516
▁거꾸로	-7517
▁거라도	-7518
▁거리가	-7519
▁걱정을	-7520
▁건강한	-7521
▁걸렸어	-7522
▁걸었어	-7523
▁것이든	-7524
▁것일까	-7525
▁견과류	-7526
▁견디기	-7527
▁결국은	-7528
▁결혼에	-7529
▁결혼하	-7530
▁경쟁이	-7531
▁고독한	-7532
▁고르는	-7533
▁고민을	-7534
▁고백이	-7535
▁고백한	-7536
▁고치기	-7537
▁공감이	-7538
▁공부를	-7539
▁공휴일	-7540
▁관계는	-7541
▁관계도	-7542
▁관계에	-7543
▁관심있	-7544
▁괜찮지	-7545
▁괴롭다	-7546
▁구남친	-7547
▁구썸남	-7548
▁귀여운	-7549
▁귀엽죠	-7550
▁귀찮다	-7551
▁귀찮은	-7552
▁그것이	-7553
▁그대의	-7554
▁그러지	-7555
▁그런거	-7556
▁그만두	-7557
▁그분도	-7558
▁그분에	-7559
▁그에게	-7560
▁기대는	-7561
▁기억될	-7562
▁기억만	-7563
▁기운이	-7564
▁길거리	-7565
▁깨끗이	-7566
▁깨졌어	-7567
▁꿈에나	-7568
▁끊는게	-7569
▁끊어야	-7570
▁끝나도	-7571
▁끝나면	-7572
▁끝내는	-7573
▁끝인거	-7574
▁끝일줄	-7575
▁나가는	-7576
▁나가지	-7577
▁나갈까	-7578
▁나니까	-7579
▁나들이	-7580
▁나쁜놈	-7581
▁나약한	-7582
▁나오고	-7583
▁나온다	-7584
▁나이들	-7585
▁나타나	-7586
▁날씨도	-7587
▁남기고	-7588
▁남기는	-7589
▁남는게	-7590
▁났나봐	-7591
▁내리지	-7592
▁내버려	-7593
▁넋두리	-7594
▁노래가	-7595
▁노후는	-7596
▁놓아줄	-7597
▁놓치고	-7598
▁놓치지	-7599
▁누구냐	-7600
▁누우면	-7601
▁눈꺼풀	-7602
▁느껴지	-7603
▁다갔어	-7604
▁다니는	-7605
▁다닐까	-7606
▁다독여	-7607
▁다른데	-7608
▁다시는	-7609
▁다양한	-7610
▁다정한	-7611
▁단순한	-7612
▁단톡방	-7613
▁달달할	-7614
▁달라질	-7615
▁담배를	-7616
▁답장을	-7617
▁당당히	-7618
▁당사자	-7619
▁당신만	-7620
▁대단한	-7621
▁대하는	-7622
▁대학원	-7623
▁더이상	-7624
▁데리러	-7625
▁도와드	-7626
▁도저히	-7627
▁도전이	-7628
▁독하게	-7629
▁돌아갈	-7630
▁돌아와	-7631
▁동생이	-7632
▁되겠죠	-7633
▁되네요	-7634
▁되시길	-7635
▁된다면	-7636
▁두려운	-7637
▁뒤돌아	-7638
▁뒷통수	-7639
▁드레스	-7640
▁든든할	-7641
▁들어맞	-7642
▁들어요	-7643
▁들으며	-7644
▁들텐데	-7645
▁딱이죠	-7646
▁때리기	-7647
▁때마다	-7648
▁땡긴다	-7649
▁떡볶이	-7650
▁떨려서	-7651
▁떨어짐	-7652
▁똑같이	-7653
▁똑똑해	-7654
▁리액션	-7655
▁마셔요	-7656
▁마시기	-7657
▁마음껏	-7658
▁마주쳤	-7659
▁만나실	-7660
▁만났을	-7661
▁만들면	-7662
▁만들죠	-7663
▁많겠지	-7664
▁많지만	-7665
▁말이죠	-7666
▁말투는	-7667
▁말하면	-7668
▁말할까	-7669
▁맘같지	-7670
▁맛난거	-7671
▁머리로	-7672
▁먹기로	-7673
▁먹으러	-7674
▁멘탈이	-7675
▁면접만	-7676
▁모두를	-7677
▁모으는	-7678
▁모처럼	-7679
▁목걸이	-7680
▁목욕탕	-7681
▁몰라서	-7682
▁몰랐어	-7683
▁몸에서	-7684
▁못할까	-7685
▁무거운	-7686
▁무너진	-7687
▁무뎌질	-7688
▁무릎에	-7689
▁무모한	-7690
▁무섭네	-7691
▁무섭다	-7692
▁문제에	-7693
▁묻어두	-7694
▁물가가	-7695
▁물질이	-7696
▁뭐하냐	-7697
▁뭘까요	-7698
▁뭘하면	-7699
▁미련만	-7700
▁미련한	-7701
▁믿기지	-7702
▁바꾸는	-7703
▁바꿔야	-7704
▁바꿨어	-7705
▁바뀌어	-7706
▁바나나	-7707
▁바람둥	-7708
▁바람피	-7709
▁반대로	-7710
▁반에서	-7711
▁받았던	-7712
▁방법은	-7713
▁방식이	-7714
▁방학에	-7715
▁방학은	-7716
▁방해가	-7717
▁배불러	-7718
▁배워도	-7719
▁배터리	-7720
▁베란다	-7721
▁변덕이	-7722
▁변하고	-7723
▁별로임	-7724
▁별의별	-7725
▁보고만	-7726
▁보고파	-7727
▁보는건	-7728
▁보는데	-7729
▁보니까	-7730
▁보듬어	-7731
▁보시면	-7732
▁보이네	-7733
▁보인다	-7734
▁복잡할	-7735
▁본인이	-7736
▁볼때는	-7737
▁봐봐요	-7738
▁부리면	-7739
▁분명히	-7740
▁분에게	-7741
▁불가능	-7742
▁비겁한	-7743
▁비정상	-7744
▁빈자리	-7745
▁빌릴까	-7746
▁빠르게	-7747
▁빠져나	-7748
▁사겼어	-7749
▁사계절	-7750
▁사귀긴	-7751
▁사귀다	-7752
▁사라진	-7753
▁사람일	-7754
▁사랑만	-7755
▁사로잡	-7756
▁사실에	-7757
▁살거야	-7758
▁살아서	-7759
▁살아온	-7760
▁샀는데	-7761
▁상대는	-7762
▁상대에	-7763
▁상사병	-7764
▁상자를	-7765
▁상태인	-7766
▁상황에	-7767
▁상황일	-7768
▁색다른	-7769
▁생각지	-7770
▁생기길	-7771
▁서서히	-7772
▁선물해	-7773
▁선의의	-7774
▁선택의	-7775
▁설레고	-7776
▁성격도	-7777
▁성장을	-7778
▁세월이	-7779
▁소름돋	-7780
▁소모가	-7781
▁소비를	-7782
▁손수건	-7783
▁손으로	-7784
▁쇼핑몰	-7785
▁수천번	-7786
▁쉬면서	-7787
▁스릴있	-7788
▁슬프다	-7789
▁시간과	-7790
▁시작은	-7791
▁시작을	-7792
▁식었어	-7793
▁싫은데	-7794
▁싶다면	-7795
▁싶은게	-7796
▁싶지만	-7797
▁썸녀랑	-7798
▁썸으로	-7799
▁썸일까	-7800
▁씁니다	-7801
▁아니니	-7802
▁아니다	-7803
▁아무는	-7804
▁아무런	-7805
▁아이고	-7806
▁아파요	-7807
▁아프기	-7808
▁안되나	-7809
▁안보여	-7810
▁안오지	-7811
▁안하면	-7812
▁안해줘	-7813
▁않았을	-7814
▁알게되	-7815
▁알려면	-7816
▁알아가	-7817
▁알아야	-7818
▁애교가	-7819
▁약간의	-7820
▁얘기해	-7821
▁어디가	-7822
▁어렵지	-7823
▁어색한	-7824
▁어색해	-7825
▁얼떨떨	-7826
▁없다는	-7827
▁없대요	-7828
▁여기서	-7829
▁여지를	-7830
▁여행지	-7831
▁역시나	-7832
▁연습해	-7833
▁연애도	-7834
▁연애인	-7835
▁연인이	-7836
▁열까지	-7837
▁영원히	-7838
▁영향을	-7839
▁영화가	-7840
▁영화를	-7841
▁예쁘다	-7842
▁예쁜데	-7843
▁예의를	-7844
▁오늘로	-7845
▁오래갈	-7846
▁오르네	-7847
▁오지랖	-7848
▁온다고	-7849
▁올랐어	-7850
▁와닿지	-7851
▁왜이리	-7852
▁외국어	-7853
▁외로움	-7854
▁우산을	-7855
▁우울증	-7856
▁우울한	-7857
▁운동은	-7858
▁운동화	-7859
▁울적한	-7860
▁울적해	-7861
▁웃는게	-7862
▁웃으면	-7863
▁원망은	-7864
▁원하지	-7865
▁월급을	-7866
▁유학을	-7867
▁의도는	-7868
▁의심이	-7869
▁이김에	-7870
▁이대로	-7871
▁이러다	-7872
▁이러면	-7873
▁이럴까	-7874
▁이번달	-7875
▁이번엔	-7876
▁이별하	-7877
▁이사람	-7878
▁이상의	-7879
▁이어가	-7880
▁이해는	-7881
▁이혼을	-7882
▁인고의	-7883
▁인연에	-7884
▁일부로	-7885
▁입니다	-7886
▁입을까	-7887
▁입장을	-7888
▁있도록	-7889
▁있었던	-7890
▁있음을	-7891
▁잊기가	-7892
▁잊는게	-7893
▁잊혀진	-7894
▁자극이	-7895
▁자동차	-7896
▁자리가	-7897
▁자유를	-7898
▁자존심	-7899
▁자체를	-7900
▁작아지	-7901
▁잔소리	-7902
▁잘되고	-7903
▁잘못은	-7904
▁잘생겨	-7905
▁잘자요	-7906
▁잘하게	-7907
▁잘하니	-7908
▁잘할까	-7909
▁잡념을	-7910
▁잡았어	-7911
▁장점을	-7912
▁재미없	-7913
▁재설계	-7914
▁재채기	-7915
▁적어도	-7916
▁적응이	-7917
▁전기가	-7918
▁전까지	-7919
▁전부는	-7920
▁전에는	-7921
▁전으로	-7922
▁전학가	-7923
▁전화는	-7924
▁정답을	-7925
▁정답이	-7926
▁정도에	-7927
▁정리되	-7928
▁정리에	-7929
▁정성이	-7930
▁정신과	-7931
▁정신병	-7932
▁정신적	-7933
▁정하고	-7934
▁정확히	-7935
▁조급해	-7936
▁조언이	-7937
▁조용히	-7938
▁종교를	-7939
▁좋다고	-7940
▁좋더라	-7941
▁좋아져	-7942
▁좋아진	-7943
▁좋으니	-7944
▁좋은지	-7945
▁주려고	-7946
▁주름살	-7947
▁주변의	-7948
▁주인공	-7949
▁죽겠다	-7950
▁죽겠어	-7951
▁죽어도	-7952
▁죽을거	-7953
▁줄임말	-7954
▁중간에	-7955
▁중고로	-7956
▁줬으면	-7957
▁지긋지	-7958
▁지나고	-7959
▁지내요	-7960
▁지워질	-7961
▁지쳐요	-7962
▁지쳤어	-7963
▁지치네	-7964
▁직장인	-7965
▁진급할	-7966
▁진통제	-7967
▁질투가	-7968
▁질투를	-7969
▁집까지	-7970
▁짜증남	-7971
▁짝남과	-7972
▁짝남은	-7973
▁짝녀와	-7974
▁찍었네	-7975
▁차단도	-7976
▁차별이	-7977
▁차이인	-7978
▁착각이	-7979
▁참겠어	-7980
▁참아야	-7981
▁창피해	-7982
▁책임질	-7983
▁처음엔	-7984
▁처음이	-7985
▁첫이별	-7986
▁청소는	-7987
▁청소를	-7988
▁축복과	-7989
▁축하해	-7990
▁취직할	-7991
▁취해서	-7992
▁친척들	-7993
▁카톡할	-7994
▁컴터가	-7995
▁클럽을	-7996
▁탓하지	-7997
▁티나나	-7998
▁페북을	-7999
▁포근한	-8000
▁풀렸길	-8001
▁피시방	-8002
▁피하고	-8003
▁필요가	-8004
▁필요도	-8005
▁하겠죠	-8006
▁하기로	-8007
▁하는거	-8008
▁하늘이	-8009
▁하라는	-8010
▁하려면	-8011
▁하루일	-8012
▁하시고	-8013
▁하지마	-8014
▁하지요	-8015
▁학교에	-8016
▁한달반	-8017
▁한달째	-8018
▁한번만	-8019
▁한순간	-8020
▁한없이	-8021
▁한켠에	-8022
▁할게요	-8023
▁할수록	-8024
▁함께면	-8025
▁해내고	-8026
▁해주면	-8027
▁했나봐	-8028
▁했네요	-8029
▁했는지	-8030
▁했더니	-8031
▁행동할	-8032
▁행복이	-8033
▁향수가	-8034
▁허상일	-8035
▁허전할	-8036
▁헷갈려	-8037
▁호르몬	-8038
▁확률이	-8039
▁후배가	-8040
▁후회없	-8041
▁휴유증	-8042
▁흑역사	-8043
▁흔적이	-8044
▁흘러갈	-8045
▁힘내요	-8046
▁힘들면	-8047
남자친구	-8048
년이라는	-8049
더라구요	-8050
르니까요	-8051
만으로도	-8052
받으면서	-8053
보는것도	-8054
사람에게	-8055
이라면요	-8056
이었네요	-8057
이었는데	-8058
적이에요	-8059
중입니다	-8060
질뻔했어	-8061
하겠지만	-8062
하면서도	-8063
한다는데	-8064
해야하나	-8065
▁가고싶다	-8066
▁가까워질	-8067
▁가나봐요	-8068
▁가늠하지	-8069
▁가벼워질	-8070
▁가져가면	-8071
▁가져왔다	-8072
▁가족들과	-8073
▁가치관에	-8074
▁간단하게	-8075
▁간질간질	-8076
▁감성적이	-8077
▁거니까요	-8078
▁거두세요	-8079
▁거짓말이	-8080
▁걱정하면	-8081
▁건가봐요	-8082
▁겨울에는	-8083
▁견뎌봐요	-8084
▁결정하기	-8085
▁결정하는	-8086
▁결혼이나	-8087
▁결혼한지	-8088
▁계산적인	-8089
▁고마워요	-8090
▁고맙다고	-8091
▁고백해야	-8092
▁고백했다	-8093
▁공부하는	-8094
▁공부하러	-8095
▁공부할까	-8096
▁괜찮아지	-8097
▁궁금증을	-8098
▁궁금하면	-8099
▁궁금한게	-8100
▁그것만큼	-8101
▁그러니까	-8102
▁그럴까요	-8103
▁그럴수도	-8104
▁그리움을	-8105
▁그리움이	-8106
▁그분에게	-8107
▁그사람이	-8108
▁기다려야	-8109
▁기다리게	-8110
▁기대치가	-8111
▁길러볼까	-8112
▁까먹었어	-8113
▁깎아야지	-8114
▁깨달음이	-8115
▁끝일지도	-8116
▁나겠어요	-8117
▁나누는게	-8118
▁나아지길	-8119
▁나에게도	-8120
▁나오라고	-8121
▁나오세요	-8122
▁날이에요	-8123
▁남자애랑	-8124
▁내려놓고	-8125
▁내리는게	-8126
▁냉장고에	-8127
▁너덜너덜	-8128
▁너무하네	-8129
▁노력해도	-8130
▁누구보다	-8131
▁누구한테	-8132
▁느낀다면	-8133
▁느려졌어	-8134
▁다가가도	-8135
▁다가오고	-8136
▁다되가네	-8137
▁달리세요	-8138
▁답답하다	-8139
▁답답해서	-8140
▁당연해요	-8141
▁대리효도	-8142
▁데이트는	-8143
▁데이트할	-8144
▁도와줘야	-8145
▁돌아가는	-8146
▁돌아오길	-8147
▁돌아오는	-8148
▁돌아오지	-8149
▁돌아올까	-8150
▁동생이랑	-8151
▁동생인데	-8152
▁됐습니다	-8153
▁되어가길	-8154
▁되어가네	-8155
▁되었는지	-8156
▁두고두고	-8157
▁드는걸로	-8158
▁들어오면	-8159
▁따끔하게	-8160
▁마음가는	-8161
▁마음에게	-8162
▁마음인지	-8163
▁마주치면	-8164
▁마주치지	-8165
▁마지막을	-8166
▁마지막이	-8167
▁만나기만	-8168
▁만나자는	-8169
▁말이예요	-8170
▁말하는게	-8171
▁말해보는	-8172
▁말해야지	-8173
▁맞나봐요	-8174
▁머릿속이	-8175
▁멋있네요	-8176
▁멋지네요	-8177
▁모르겠다	-8178
▁모습으로	-8179
▁몰랐어요	-8180
▁못하는데	-8181
▁못했군요	-8182
▁무너졌어	-8183
▁무뎌지는	-8184
▁문득문득	-8185
▁물리적인	-8186
▁뭐하냐고	-8187
▁뭐하는지	-8188
▁미련없이	-8189
▁미소짓게	-8190
▁미안하대	-8191
▁미화되기	-8192
▁믿었는데	-8193
▁바꾸세요	-8194
▁바꿔볼까	-8195
▁바꿔야지	-8196
▁바디로션	-8197
▁바디워시	-8198
▁바라는게	-8199
▁바란다면	-8200
▁바보같이	-8201
▁반대래요	-8202
▁반복되는	-8203
▁방법이죠	-8204
▁배고파서	-8205
▁배려해야	-8206
▁배우세요	-8207
▁배우자가	-8208
▁배워가는	-8209
▁배워보고	-8210
▁배워볼까	-8211
▁버려야지	-8212
▁베터리가	-8213
▁변해가는	-8214
▁별로네요	-8215
▁보내세요	-8216
▁보냈으니	-8217
▁복잡하게	-8218
▁봐보세요	-8219
▁봐주세요	-8220
▁봤습니다	-8221
▁부모님께	-8222
▁부정적인	-8223
▁부족한가	-8224
▁분명하게	-8225
▁분위기가	-8226
▁브랜드가	-8227
▁비슷하죠	-8228
▁비오는날	-8229
▁비트코인	-8230
▁비혼주의	-8231
▁사귀는데	-8232
▁사귀세요	-8233
▁사귀자고	-8234
▁사귀자는	-8235
▁사람만의	-8236
▁사랑받는	-8237
▁사랑보다	-8238
▁사랑에도	-8239
▁사랑하게	-8240
▁사랑해줄	-8241
▁사랑했어	-8242
▁삭제하는	-8243
▁살고싶어	-8244
▁살아가는	-8245
▁살아야죠	-8246
▁살았는데	-8247
▁상관없이	-8248
▁상대방은	-8249
▁상처받게	-8250
▁생각없이	-8251
▁생각일까	-8252
▁생각지도	-8253
▁생각처럼	-8254
▁생각했던	-8255
▁생일선물	-8256
▁선물해도	-8257
▁선택으로	-8258
▁세상이죠	-8259
▁속박에서	-8260
▁손가락이	-8261
▁솔직하고	-8262
▁쉬어가는	-8263
▁스스로를	-8264
▁스타일에	-8265
▁시간낭비	-8266
▁시간인데	-8267
▁시골에서	-8268
▁시끄러워	-8269
▁시어머니	-8270
▁시작하는	-8271
▁시키세요	-8272
▁식단조절	-8273
▁신경쓰인	-8274
▁실망하지	-8275
▁실용적인	-8276
▁심심한데	-8277
▁싶나봐요	-8278
▁썸인가요	-8279
▁아날로그	-8280
▁아니겠지	-8281
▁아니었어	-8282
▁아무말도	-8283
▁아침마다	-8284
▁아파하고	-8285
▁아프지만	-8286
▁안되겠죠	-8287
▁않습니다	-8288
▁않았네요	-8289
▁않았다면	-8290
▁알겠어서	-8291
▁알바생이	-8292
▁알아가는	-8293
▁애완동물	-8294
▁얘기하지	-8295
▁어디가지	-8296
▁어디에서	-8297
▁어린이집	-8298
▁어울릴까	-8299
▁어장인거	-8300
▁언제부터	-8301
▁얼굴보고	-8302
▁없습니다	-8303
▁없으면서	-8304
▁여우같은	-8305
▁여유롭게	-8306
▁여자인데	-8307
▁여친이랑	-8308
▁여행가고	-8309
▁연락오네	-8310
▁연습하고	-8311
▁연애상담	-8312
▁연애할때	-8313
▁연예인도	-8314
▁영화보고	-8315
▁영화보러	-8316
▁예상하지	-8317
▁오랜연애	-8318
▁외롭다고	-8319
▁웬수네요	-8320
▁웬수예요	-8321
▁의미일까	-8322
▁의심하지	-8323
▁의지해도	-8324
▁이겨내고	-8325
▁이뤄지지	-8326
▁이별이든	-8327
▁이별하면	-8328
▁이사하는	-8329
▁이상한가	-8330
▁이상형을	-8331
▁이야기는	-8332
▁이야기할	-8333
▁이용하는	-8334
▁이제부터	-8335
▁이해해요	-8336
▁인기있는	-8337
▁인연이죠	-8338
▁인정하는	-8339
▁일상으로	-8340
▁일어나야	-8341
▁일요일에	-8342
▁일이라도	-8343
▁일주일이	-8344
▁있었어요	-8345
▁자신만의	-8346
▁자야겠다	-8347
▁자존심을	-8348
▁잘되니까	-8349
▁잘해주면	-8350
▁장난인지	-8351
▁재미있는	-8352
▁쟁취하는	-8353
▁적극적인	-8354
▁전화해도	-8355
▁접촉하는	-8356
▁정리되길	-8357
▁정리하게	-8358
▁정리하길	-8359
▁제정신이	-8360
▁조급하게	-8361
▁종지부를	-8362
▁좋아졌어	-8363
▁좋아한대	-8364
▁좋을지도	-8365
▁주말이네	-8366
▁주말인데	-8367
▁지겨워진	-8368
▁지나가는	-8369
▁지났는데	-8370
▁지났어요	-8371
▁진지하게	-8372
▁집착하게	-8373
▁짝사랑만	-8374
▁차단하고	-8375
▁차례예요	-8376
▁차분하고	-8377
▁찾아오네	-8378
▁척하는게	-8379
▁첫사랑을	-8380
▁첫인상은	-8381
▁최저임금	-8382
▁추운가요	-8383
▁취직이나	-8384
▁친구들은	-8385
▁친구에게	-8386
▁크기만큼	-8387
▁토닥토닥	-8388
▁통보하는	-8389
▁퇴근길에	-8390
▁판도라의	-8391
▁편안하게	-8392
▁편안해질	-8393
▁편하다는	-8394
▁표현하기	-8395
▁피곤해서	-8396
▁한달만에	-8397
▁해달라고	-8398
▁해야겠죠	-8399
▁해야하나	-8400
▁해주는게	-8401
▁해주면서	-8402
▁해줬으면	-8403
▁행복하면	-8404
▁허무하네	-8405
▁헤어지네	-8406
▁헤어짐도	-8407
▁혼인신고	-8408
▁확실하게	-8409
▁확인하고	-8410
▁후회안할	-8411
▁후회하면	-8412
▁훔쳐보는	-8413
▁흐지부지	-8414
▁흘리세요	-8415
▁희생양이	-8416
▁히스테리	-8417
▁힘들거라	-8418
▁힘들어도	-8419
▁힘이드네	-8420
버렸습니다	-8421
었나봅니다	-8422
이었나봐요	-8423
하고싶은데	-8424
하더라고요	-8425
하시겠어요	-8426
해졌나봐요	-8427
▁가능할까요	-8428
▁가져주세요	-8429
▁개강이라니	-8430
▁객관적으로	-8431
▁걱정마세요	-8432
▁것만으로도	-8433
▁고민이네요	-8434
▁고백받았어	-8435
▁고백할까요	-8436
▁괜찮습니다	-8437
▁구체적으로	-8438
▁귀엽겠네요	-8439
▁기대했는데	-8440
▁기도할게요	-8441
▁길러보세요	-8442
▁깊었나봐요	-8443
▁남사친이랑	-8444
▁남편이네요	-8445
▁느껴보세요	-8446
▁다되어가네	-8447
▁다를거예요	-8448
▁달려있겠죠	-8449
▁답답할거라	-8450
▁당신이네요	-8451
▁데이트하고	-8452
▁뒤숭숭하네	-8453
▁따져보세요	-8454
▁때문이겠죠	-8455
▁때문이에요	-8456
▁떨리겠어요	-8457
▁떨어뜨려서	-8458
▁마셔보세요	-8459
▁마음이네요	-8460
▁마음이에요	-8461
▁만들어봐요	-8462
▁모르겠지만	-8463
▁무덤덤해질	-8464
▁무시당하는	-8465
▁문제인가요	-8466
▁물어보거나	-8467
▁미안해하지	-8468
▁믿어주세요	-8469
▁반갑습니다	-8470
▁반했나봐요	-8471
▁변덕스럽게	-8472
▁보내보세요	-8473
▁복잡한가요	-8474
▁봉사활동도	-8475
▁부담스러울	-8476
▁분인가봐요	-8477
▁사람들한테	-8478
▁사람일지도	-8479
▁사랑이라고	-8480
▁사랑이야기	-8481
▁사랑하는지	-8482
▁사랑하세요	-8483
▁사랑합니다	-8484
▁사랑해주는	-8485
▁생각나네요	-8486
▁생각하면서	-8487
▁서운하다고	-8488
▁쉬어가세요	-8489
▁습관처럼은	-8490
▁시간이었을	-8491
▁시간이에요	-8492
▁신경쓰이는	-8493
▁심리일까요	-8494
▁썸이었으면	-8495
▁아껴주세요	-8496
▁아닐거예요	-8497
▁아파하다가	-8498
▁아프겠어요	-8499
▁안되나봐요	-8500
▁안좋아하는	-8501
▁애프터까지	-8502
▁없어졌으면	-8503
▁여사친이랑	-8504
▁영화관이나	-8505
▁왔나봅니다	-8506
▁유통기한이	-8507
▁유효기간이	-8508
▁의미부여는	-8509
▁이별이에요	-8510
▁이별하려고	-8511
▁이야기해요	-8512
▁익숙해지지	-8513
▁인사드리러	-8514
▁인생이에요	-8515
▁인연이라면	-8516
▁인정하세요	-8517
▁일어났더니	-8518
▁일이니까요	-8519
▁일주일이네	-8520
▁잊어버리는	-8521
▁잘하셨어요	-8522
▁장난스러운	-8523
▁재회했는데	-8524
▁전여친이랑	-8525
▁전여친한테	-8526
▁접어두셔요	-8527
▁정리하는데	-8528
▁정리하려고	-8529
▁제자리여도	-8530
▁조금이나마	-8531
▁존중합니다	-8532
▁좋겠습니다	-8533
▁좋아하니까	-8534
▁좋아할까요	-8535
▁좋았을텐데	-8536
▁주말이네요	-8537
▁준비되어야	-8538
▁준비하는데	-8539
▁중독인가봐	-8540
▁중요하겠죠	-8541
▁지긋지긋한	-8542
▁지켜주세요	-8543
▁진정하세요	-8544
▁질투난다고	-8545
▁짝사랑에서	-8546
▁찍어주세요	-8547
▁차단하세요	-8548
▁채워보세요	-8549
▁채워줄게요	-8550
▁챙겨주세요	-8551
▁최선이었을	-8552
▁추천드려요	-8553
▁크시겠어요	-8554
▁태어났을까	-8555
▁팔아보세요	-8556
▁표현하세요	-8557
▁필요한가요	-8558
▁하셨나봐요	-8559
▁한달이에요	-8560
▁행복했으면	-8561
▁헤어지자는	-8562
▁헤어진지도	-8563
▁헬스장에서	-8564
▁혼란스러워	-8565
▁흘렀나봐요	-8566
▁결혼적령기가	-8567
▁고민해보세요	-8568
▁그리운가봐요	-8569
▁기울여보세요	-8570
▁다독여주세요	-8571
▁대화해보세요	-8572
▁도와드릴게요	-8573
▁도전해보세요	-8574
▁드라이플라워	-8575
▁떨쳐버리세요	-8576
▁무덤덤해지는	-8577
▁받아들이세요	-8578
▁배려해보세요	-8579
▁복잡한가봐요	-8580
▁부족한가봐요	-8581
▁빠져나오세요	-8582
▁상의해보세요	-8583
▁새출발하세요	-8584
▁생각하나봐요	-8585
▁생각해봅니다	-8586
▁서운하겠어요	-8587
▁설득해보세요	-8588
▁신청해보세요	-8589
▁여기까지였을	-8590
▁연락해도될까	-8591
▁연락했습니다	-8592
▁의지해보세요	-8593
▁이야기하세요	-8594
▁이어나가는게	-8595
▁익숙해지지가	-8596
▁있었나봅니다	-8597
▁정리했습니다	-8598
▁제안해보세요	-8599
▁존중해줬으면	-8600
▁좋아하는데도	-8601
▁좋아했나봐요	-8602
▁중요하니까요	-8603
▁착잡하겠어요	-8604
▁칭찬해보세요	-8605
▁표현해주세요	-8606
▁피곤하겠어요	-8607
▁허전하겠어요	-8608
▁허전한가봐요	-8609
▁헛헛한가봐요	-8610
▁헤어지고나서	-8611
▁화이트데이에	-8612
▁힘들었을텐데	-8613
▁결혼적령기예요	-8614
▁그린라이트일까	-8615
▁당황하셨겠어요	-8616
▁들어맞나봅니다	-8617
▁마음정리하세요	-8618
▁받아들여보세요	-8619
▁사람이었나봐요	-8620
▁사랑이었나봐요	-8621
▁사랑하나봅니다	-8622
▁신경쓰이나봐요	-8623
▁사랑이었으니까요	-8624
▁값	-8625
▁걍	-8626
▁괘	-8627
▁규	-8628
▁균	-8629
▁귤	-8630
▁깐	-8631
▁깬	-8632
▁깼	-8633
▁꼴	-8634
▁꿩	-8635
▁낀	-8636
▁낌	-8637
▁넥	-8638
▁논	-8639
▁눅	-8640
▁닥	-8641
▁닭	-8642
▁댄	-8643
▁댓	-8644
▁덧	-8645
▁덮	-8646
▁둬	-8647
▁듬	-8648
▁띵	-8649
▁범	-8650
▁뷔	-8651
▁빽	-8652
▁삔	-8653
▁섞	-8654
▁섹	-8655
▁솜	-8656
▁송	-8657
▁쌈	-8658
▁썩	-8659
▁쑤	-8660
▁압	-8661
▁왼	-8662
▁줬	-8663
▁쥬	-8664
▁짤	-8665
▁짬	-8666
▁쩌	-8667
▁쪘	-8668
▁쳇	-8669
▁촉	-8670
▁캐	-8671
▁콧	-8672
▁쿠	-8673
▁탐	-8674
▁튀	-8675
▁팬	-8676
▁펑	-8677
▁펭	-8678
▁픽	-8679
▁헉	-8680
▁혈	-8681
▁홀	-8682
▁훅	-8683
▁훌	-8684
▁휙	-8685
▁흰	-8686
▁힌	-8687
가나	-8688
가운	-8689
가입	-8690
가짐	-8691
간당	-8692
간에	-8693
감기	-8694
감정	-8695
감한	-8696
값을	-8697
값이	-8698
강차	-8699
▁롤	-8700
▁빙	-8701
▁빡	-8702
▁뺏	-8703
갖지	-8704
같네	-8705
같다	-8706
거다	-8707
거란	-8708
거로	-8709
건너	-8710
걸리	-8711
검진	-8712
것에	-8713
게를	-8714
게탕	-8715
겟어	-8716
겟죠	-8717
견례	-8718
결이	-8719
경우	-8720
고는	-8721
고문	-8722
고민	-8723
곡에	-8724
곡차	-8725
곤증	-8726
골이	-8727
과의	-8728
과적	-8729
관념	-8730
관에	-8731
구가	-8732
구마	-8733
구만	-8734
구죠	-8735
구쳐	-8736
국수	-8737
궁무	-8738
권이	-8739
그란	-8740
그래	-8741
그인	-8742
근무	-8743
금도	-8744
금통	-8745
기견	-8746
기네	-8747
기라	-8748
기름	-8749
기면	-8750
기운	-8751
기자	-8752
기정	-8753
기찬	-8754
긴건	-8755
긴지	-8756
길게	-8757
깃만	-8758
까옷	-8759
깍째	-8760
꺼비	-8761
꼬리	-8762
꽂이	-8763
꾸난	-8764
꿀해	-8765
끝이	-8766
나긴	-8767
나보	-8768
나쁘	-8769
나쁜	-8770
나올	-8771
낫네	-8772
내기	-8773
널을	-8774
넛오	-8775
년여	-8776
노력	-8777
놈들	-8778
눅해	-8779
눴길	-8780
는것	-8781
늦게	-8782
니즘	-8783
니티	-8784
다네	-8785
다녀	-8786
다시	-8787
단은	-8788
달까	-8789
달된	-8790
달반	-8791
달할	-8792
담길	-8793
당을	-8794
당황	-8795
대사	-8796
댓말	-8797
던게	-8798
던곳	-8799
▁샐	-8800
▁섣	-8801
▁숏	-8802
▁썰	-8803
▁얇	-8804
▁옛	-8805
▁옮	-8806
던데	-8807
덜덜	-8808
데기	-8809
도염	-8810
돌림	-8811
동생	-8812
동을	-8813
돼야	-8814
되게	-8815
되고	-8816
되실	-8817
되어	-8818
된거	-8819
두통	-8820
둥해	-8821
뒹글	-8822
드리	-8823
들로	-8824
들만	-8825
들요	-8826
듯할	-8827
디게	-8828
디오	-8829
뚝뚝	-8830
띠를	-8831
라구	-8832
라뇨	-8833
라를	-8834
람을	-8835
랭이	-8836
량을	-8837
러니	-8838
러드	-8839
러운	-8840
런치	-8841
럴까	-8842
럽을	-8843
레질	-8844
려야	-8845
력소	-8846
례품	-8847
례허	-8848
록금	-8849
록초	-8850
론가	-8851
롭지	-8852
료를	-8853
루즈	-8854
루투	-8855
룽지	-8856
류성	-8857
르륵	-8858
르쳐	-8859
를까	-8860
리나	-8861
리다	-8862
리두	-8863
리래	-8864
리로	-8865
리마	-8866
리며	-8867
림도	-8868
릿빛	-8869
마려	-8870
마시	-8871
마음	-8872
마저	-8873
많은	-8874
말자	-8875
망한	-8876
매가	-8877
맨날	-8878
머코	-8879
먼이	-8880
메라	-8881
면과	-8882
면에	-8883
모두	-8884
모호	-8885
목을	-8886
몸이	-8887
몸일	-8888
무슨	-8889
문서	-8890
문제	-8891
물도	-8892
물이	-8893
미리	-8894
미팅	-8895
밖의	-8896
반에	-8897
받쳐	-8898
밥통	-8899
▁젊	-8900
▁켠	-8901
▁텁	-8902
▁툭	-8903
▁풍	-8904
동진	-8905
명빨	-8906
박씨	-8907
방안	-8908
방은	-8909
방져	-8910
방학	-8911
방향	-8912
밭길	-8913
배를	-8914
배정	-8915
배추	-8916
백번	-8917
뱃돈	-8918
버는	-8919
벅스	-8920
번째	-8921
벨이	-8922
보길	-8923
보까	-8924
보단	-8925
보지	-8926
볶음	-8927
본적	-8928
볼께	-8929
봉지	-8930
봤자	-8931
부려	-8932
부름	-8933
부분	-8934
부탁	-8935
분만	-8936
분씩	-8937
분크	-8938
붓고	-8939
브네	-8940
블러	-8941
비스	-8942
비에	-8943
빈과	-8944
빌려	-8945
빼고	-8946
사고	-8947
사빠	-8948
상실	-8949
상화	-8950
새가	-8951
새끼	-8952
생에	-8953
서는	-8954
서를	-8955
서서	-8956
서클	-8957
선한	-8958
설팅	-8959
셔도	-8960
션은	-8961
소연	-8962
손잡	-8963
수궁	-8964
수로	-8965
수리	-8966
수의	-8967
수한	-8968
스가	-8969
스런	-8970
스터	-8971
슬려	-8972
습기	-8973
시작	-8974
시킬	-8975
식장	-8976
싫어	-8977
심리	-8978
싶고	-8979
싶지	-8980
싹한	-8981
씨가	-8982
씨방	-8983
씰룩	-8984
아플	-8985
안돼	-8986
안상	-8987
않은	-8988
야돼	-8989
야를	-8990
야한	-8991
양지	-8992
어린	-8993
어싱	-8994
어오	-8995
어져	-8996
언제	-8997
없죠	-8998
었대	-8999
여다	-9000
여둔	-9001
열다	-9002
였길	-9003
예보	-9004
오르	-9005
오톡	-9006
온대	-9007
올게	-9008
올랐	-9009
옴을	-9010
와야	-9011
외비	-9012
용에	-9013
용이	-9014
용증	-9015
우길	-9016
우선	-9017
우울	-9018
울때	-9019
울컥	-9020
웃풋	-9021
워크	-9022
월의	-9023
웠길	-9024
육이	-9025
율주	-9026
으실	-9027
을거	-9028
을수	-9029
음만	-9030
의끝	-9031
의해	-9032
이게	-9033
이기	-9034
이란	-9035
이런	-9036
이에	-9037
이핀	-9038
이한	-9039
인건	-9040
인걸	-9041
인배	-9042
인사	-9043
인은	-9044
인척	-9045
일꺼	-9046
일도	-9047
일로	-9048
일링	-9049
일을	-9050
일지	-9051
읽씹	-9052
임머	-9053
있게	-9054
있네	-9055
있다	-9056
있죠	-9057
자격	-9058
작용	-9059
잔데	-9060
잘라	-9061
잡고	-9062
잡는	-9063
장애	-9064
장판	-9065
재가	-9066
저것	-9067
저나	-9068
저트	-9069
적을	-9070
적추	-9071
적한	-9072
전과	-9073
전순	-9074
전의	-9075
전이	-9076
전한	-9077
절염	-9078
절할	-9079
정말	-9080
제차	-9081
젝트	-9082
져트	-9083
졌다	-9084
조를	-9085
조리	-9086
조언	-9087
종료	-9088
죄지	-9089
주긴	-9090
주네	-9091
주를	-9092
주시	-9093
주정	-9094
주차	-9095
준것	-9096
줌마	-9097
줍게	-9098
중을	-9099
증금	-9100
증이	-9101
지망	-9102
직한	-9103
진짜	-9104
질러	-9105
집에	-9106
징글	-9107
쨌든	-9108
쪽이	-9109
찌개	-9110
차단	-9111
차로	-9112
차이	-9113
착이	-9114
찬하	-9115
찰에	-9116
처녀	-9117
척해	-9118
철과	-9119
청약	-9120
쳐올	-9121
쳐요	-9122
추는	-9123
추억	-9124
추위	-9125
출할	-9126
취를	-9127
취제	-9128
츠러	-9129
치길	-9130
치죠	-9131
칠까	-9132
카롱	-9133
커페	-9134
커풀	-9135
켰어	-9136
쿼트	-9137
클링	-9138
키는	-9139
키니	-9140
키우	-9141
타기	-9142
타면	-9143
타민	-9144
탈때	-9145
탈출	-9146
태솔	-9147
턴을	-9148
테크	-9149
토닉	-9150
통약	-9151
투리	-9152
틀어	-9153
틈이	-9154
판의	-9155
팔며	-9156
패딩	-9157
편지	-9158
폭력	-9159
표시	-9160
푸려	-9161
풀이	-9162
프다	-9163
프로	-9164
피성	-9165
피스	-9166
하구	-9167
하내	-9168
하냐	-9169
하든	-9170
하를	-9171
학생	-9172
할땐	-9173
합성	-9174
해놓	-9175
해당	-9176
햇다	-9177
했대	-9178
향이	-9179
험실	-9180
호팬	-9181
화식	-9182
확보	-9183
후에	-9184
휴가	-9185
히지	-9186
▁14	-9187
▁가네	-9188
▁가며	-9189
▁가봐	-9190
▁가사	-9191
▁가재	-9192
▁가죠	-9193
▁가출	-9194
▁가혹	-9195
▁간에	-9196
▁간지	-9197
▁갈구	-9198
▁강림	-9199
▁갖는	-9200
▁같죠	-9201
▁거래	-9202
▁거릴	-9203
▁거창	-9204
▁건네	-9205
▁걷기	-9206
▁걸렸	-9207
▁것과	-9208
▁겪은	-9209
▁견딜	-9210
▁고비	-9211
▁고시	-9212
▁고작	-9213
▁고파	-9214
▁공채	-9215
▁교통	-9216
▁교환	-9217
▁구걸	-9218
▁귀차	-9219
▁그곳	-9220
▁그놈	-9221
▁그후	-9222
▁극혐	-9223
▁근무	-9224
▁근질	-9225
▁근황	-9226
▁금물	-9227
▁기계	-9228
▁기부	-9229
▁기뻐	-9230
▁기쁜	-9231
▁기우	-9232
▁기적	-9233
▁기차	-9234
▁기초	-9235
▁기특	-9236
▁기한	-9237
▁기획	-9238
▁깊이	-9239
▁깜깜	-9240
▁깨질	-9241
▁꾸고	-9242
▁꿈도	-9243
▁끊겼	-9244
▁나갈	-9245
▁나감	-9246
▁나길	-9247
▁나로	-9248
▁나름	-9249
▁나쁨	-9250
▁나에	-9251
▁나옴	-9252
▁난처	-9253
▁날은	-9254
▁날인	-9255
▁낫고	-9256
▁낫다	-9257
▁낫지	-9258
▁내길	-9259
▁내도	-9260
▁내릴	-9261
▁내장	-9262
▁너그	-9263
▁너란	-9264
▁너만	-9265
▁너와	-9266
▁넓고	-9267
▁노답	-9268
▁놀라	-9269
▁놀려	-9270
▁높이	-9271
▁누나	-9272
▁눈빛	-9273
▁눕지	-9274
▁늦기	-9275
▁다그	-9276
▁다신	-9277
▁다운	-9278
▁다크	-9279
▁다한	-9280
▁단어	-9281
▁단지	-9282
▁단짠	-9283
▁닫고	-9284
▁달랐	-9285
▁달이	-9286
▁담은	-9287
▁답변	-9288
▁답인	-9289
▁당구	-9290
▁당함	-9291
▁대빵	-9292
▁덕질	-9293
▁덜어	-9294
▁데에	-9295
▁독서	-9296
▁독특	-9297
▁돋을	-9298
▁돌릴	-9299
▁걸음	-9300
▁걸지	-9301
▁낮춰	-9302
▁대만	-9303
▁대신	-9304
▁돌봐	-9305
▁동상	-9306
▁동의	-9307
▁되긴	-9308
▁되요	-9309
▁두지	-9310
▁둘을	-9311
▁드러	-9312
▁드론	-9313
▁들켰	-9314
▁등이	-9315
▁디자	-9316
▁따위	-9317
▁때의	-9318
▁땜에	-9319
▁떠서	-9320
▁뜬금	-9321
▁마냥	-9322
▁마디	-9323
▁마찬	-9324
▁마트	-9325
▁막고	-9326
▁막상	-9327
▁만보	-9328
▁만의	-9329
▁만져	-9330
▁말들	-9331
▁말라	-9332
▁말려	-9333
▁말지	-9334
▁맘같	-9335
▁맘은	-9336
▁맞장	-9337
▁머물	-9338
▁먹게	-9339
▁먹다	-9340
▁먹든	-9341
▁먹방	-9342
▁먹죠	-9343
▁먼데	-9344
▁명언	-9345
▁모공	-9346
▁모양	-9347
▁모음	-9348
▁모의	-9349
▁모질	-9350
▁목도	-9351
▁몸도	-9352
▁몸은	-9353
▁못가	-9354
▁못나	-9355
▁못났	-9356
▁못내	-9357
▁못된	-9358
▁못믿	-9359
▁못받	-9360
▁무난	-9361
▁무료	-9362
▁무사	-9363
▁무죄	-9364
▁물론	-9365
▁뭐니	-9366
▁뭐였	-9367
▁미쳐	-9368
▁바본	-9369
▁바이	-9370
▁반납	-9371
▁반이	-9372
▁받게	-9373
▁받니	-9374
▁발레	-9375
▁발을	-9376
▁밟힐	-9377
▁밤이	-9378
▁밥도	-9379
▁방심	-9380
▁방에	-9381
▁번의	-9382
▁법적	-9383
▁변기	-9384
▁보관	-9385
▁보답	-9386
▁보드	-9387
▁보장	-9388
▁보조	-9389
▁보죠	-9390
▁복근	-9391
▁복붙	-9392
▁복이	-9393
▁본거	-9394
▁볼매	-9395
▁봄에	-9396
▁봐야	-9397
▁부네	-9398
▁부는	-9399
▁감미	-9400
▁감이	-9401
▁골인	-9402
▁공급	-9403
▁공동	-9404
▁공연	-9405
▁공원	-9406
▁날까	-9407
▁날도	-9408
▁날들	-9409
▁날려	-9410
▁날카	-9411
▁도움	-9412
▁본다	-9413
▁부려	-9414
▁부르	-9415
▁부메	-9416
▁부산	-9417
▁부추	-9418
▁분다	-9419
▁불과	-9420
▁불륜	-9421
▁불쌍	-9422
▁붙는	-9423
▁붙어	-9424
▁뷔페	-9425
▁비례	-9426
▁비비	-9427
▁비우	-9428
▁비추	-9429
▁빠진	-9430
▁빼면	-9431
▁뿌얘	-9432
▁사적	-9433
▁사줄	-9434
▁사지	-9435
▁사치	-9436
▁산다	-9437
▁산에	-9438
▁살게	-9439
▁살랑	-9440
▁살릴	-9441
▁살살	-9442
▁살았	-9443
▁삶도	-9444
▁새가	-9445
▁서글	-9446
▁서먹	-9447
▁서지	-9448
▁선연	-9449
▁선천	-9450
▁세수	-9451
▁소가	-9452
▁소극	-9453
▁소맥	-9454
▁소모	-9455
▁소분	-9456
▁소풍	-9457
▁소홀	-9458
▁속는	-9459
▁속사	-9460
▁손님	-9461
▁손목	-9462
▁수강	-9463
▁수고	-9464
▁수만	-9465
▁수박	-9466
▁수순	-9467
▁숨길	-9468
▁쉬게	-9469
▁쉴만	-9470
▁스몰	-9471
▁스튜	-9472
▁시누	-9473
▁시린	-9474
▁시절	-9475
▁시청	-9476
▁시트	-9477
▁식초	-9478
▁신용	-9479
▁신입	-9480
▁신행	-9481
▁실로	-9482
▁싫대	-9483
▁심란	-9484
▁심플	-9485
▁싶고	-9486
▁싶대	-9487
▁싶을	-9488
▁싸는	-9489
▁쌓아	-9490
▁써서	-9491
▁썸임	-9492
▁썼길	-9493
▁쓰여	-9494
▁쓸모	-9495
▁씨앗	-9496
▁씹어	-9497
▁씻어	-9498
▁아른	-9499
▁겠죠	-9500
▁계단	-9501
▁놀지	-9502
▁따듯	-9503
▁맞길	-9504
▁맞음	-9505
▁새는	-9506
▁손재	-9507
▁실비	-9508
▁싫네	-9509
▁아시	-9510
▁아싸	-9511
▁아재	-9512
▁아휴	-9513
▁안날	-9514
▁안내	-9515
▁안열	-9516
▁안올	-9517
▁안이	-9518
▁안정	-9519
▁않나	-9520
▁않다	-9521
▁앞이	-9522
▁애국	-9523
▁애그	-9524
▁애니	-9525
▁애써	-9526
▁애야	-9527
▁약초	-9528
▁얼어	-9529
▁없음	-9530
▁엉엉	-9531
▁여부	-9532
▁연금	-9533
▁연기	-9534
▁연연	-9535
▁열쇠	-9536
▁영역	-9537
▁예랑	-9538
▁예를	-9539
▁오긴	-9540
▁오나	-9541
▁오니	-9542
▁오후	-9543
▁옷차	-9544
▁와라	-9545
▁와우	-9546
▁외박	-9547
▁외부	-9548
▁외식	-9549
▁욕먹	-9550
▁욕함	-9551
▁우는	-9552
▁우정	-9553
▁울면	-9554
▁울어	-9555
▁웃기	-9556
▁위를	-9557
▁위안	-9558
▁위층	-9559
▁이길	-9560
▁이룰	-9561
▁이른	-9562
▁이마	-9563
▁이발	-9564
▁이쁘	-9565
▁이웃	-9566
▁이자	-9567
▁이후	-9568
▁익숨	-9569
▁인강	-9570
▁인도	-9571
▁일까	-9572
▁일로	-9573
▁일요	-9574
▁일일	-9575
▁일정	-9576
▁읽고	-9577
▁읽을	-9578
▁잃을	-9579
▁입는	-9580
▁있니	-9581
▁있으	-9582
▁잊게	-9583
▁잊은	-9584
▁자게	-9585
▁자길	-9586
▁자니	-9587
▁자랑	-9588
▁자식	-9589
▁자야	-9590
▁작게	-9591
▁잘가	-9592
▁잘게	-9593
▁잘된	-9594
▁잘될	-9595
▁잘래	-9596
▁잘맞	-9597
▁잘참	-9598
▁잠겨	-9599
▁달래	-9600
▁달리	-9601
▁달에	-9602
▁달째	-9603
▁막장	-9604
▁맛도	-9605
▁반항	-9606
▁배움	-9607
▁복합	-9608
▁뻔뻔	-9609
▁성급	-9610
▁성이	-9611
▁숏컷	-9612
▁쉬울	-9613
▁쉬워	-9614
▁요가	-9615
▁잠길	-9616
▁잠도	-9617
▁잠은	-9618
▁잡을	-9619
▁잤네	-9620
▁장만	-9621
▁장수	-9622
▁장애	-9623
▁장이	-9624
▁재택	-9625
▁저렴	-9626
▁저요	-9627
▁저의	-9628
▁저축	-9629
▁전형	-9630
▁정글	-9631
▁정들	-9632
▁정량	-9633
▁정색	-9634
▁정치	-9635
▁제길	-9636
▁제로	-9637
▁조교	-9638
▁조깅	-9639
▁존경	-9640
▁주눅	-9641
▁주당	-9642
▁주소	-9643
▁주위	-9644
▁주절	-9645
▁주체	-9646
▁죽지	-9647
▁줄에	-9648
▁줄여	-9649
▁중소	-9650
▁중의	-9651
▁지겹	-9652
▁지기	-9653
▁지끈	-9654
▁지름	-9655
▁지불	-9656
▁지상	-9657
▁지식	-9658
▁지침	-9659
▁지칩	-9660
▁진리	-9661
▁진출	-9662
▁질척	-9663
▁짐작	-9664
▁집사	-9665
▁짤릴	-9666
▁쪼잔	-9667
▁쪽팔	-9668
▁쫄면	-9669
▁찌는	-9670
▁찌뿌	-9671
▁차도	-9672
▁차면	-9673
▁차임	-9674
▁차차	-9675
▁착용	-9676
▁착할	-9677
▁찰랑	-9678
▁참외	-9679
▁찾기	-9680
▁책만	-9681
▁책장	-9682
▁처방	-9683
▁천지	-9684
▁철은	-9685
▁첫키	-9686
▁청약	-9687
▁초과	-9688
▁초초	-9689
▁촬영	-9690
▁최소	-9691
▁추세	-9692
▁추울	-9693
▁축가	-9694
▁춥냐	-9695
▁취할	-9696
▁취해	-9697
▁치킨	-9698
▁친해	-9699
▁돌싱	-9700
▁듯이	-9701
▁명만	-9702
▁몰아	-9703
▁문콕	-9704
▁발바	-9705
▁버린	-9706
▁버텼	-9707
▁심각	-9708
▁심장	-9709
▁심정	-9710
▁왔나	-9711
▁욕은	-9712
▁직설	-9713
▁침착	-9714
▁카카	-9715
▁카풀	-9716
▁커요	-9717
▁코인	-9718
▁코코	-9719
▁코트	-9720
▁콜록	-9721
▁콧물	-9722
▁크는	-9723
▁클스	-9724
▁키스	-9725
▁타게	-9726
▁타도	-9727
▁타로	-9728
▁타입	-9729
▁탄탄	-9730
▁태닝	-9731
▁태산	-9732
▁텁텁	-9733
▁텅비	-9734
▁파급	-9735
▁파마	-9736
▁파토	-9737
▁펑펑	-9738
▁펭귄	-9739
▁펴고	-9740
▁편을	-9741
▁편하	-9742
▁편히	-9743
▁평안	-9744
▁평일	-9745
▁폰이	-9746
▁푸석	-9747
▁풀려	-9748
▁품에	-9749
▁피고	-9750
▁피맥	-9751
▁피지	-9752
▁하곤	-9753
▁하긴	-9754
▁하길	-9755
▁하냐	-9756
▁하실	-9757
▁하트	-9758
▁하품	-9759
▁학식	-9760
▁한고	-9761
▁한복	-9762
▁한살	-9763
▁한순	-9764
▁한심	-9765
▁한자	-9766
▁한지	-9767
▁할때	-9768
▁할래	-9769
▁할일	-9770
▁해낸	-9771
▁해놨	-9772
▁해봐	-9773
▁해선	-9774
▁햇볕	-9775
▁향이	-9776
▁허허	-9777
▁헤헤	-9778
▁현상	-9779
▁호구	-9780
▁호수	-9781
▁화났	-9782
▁화살	-9783
▁환해	-9784
▁후배	-9785
▁후아	-9786
▁휴우	-9787
▁흘려	-9788
▁힘을	-9789
가라는	-9790
가야지	-9791
가지구	-9792
간다고	-9793
거름이	-9794
거리가	-9795
거리고	-9796
걸지도	-9797
것만은	-9798
것인가	-9799
▁곳과	-9800
▁떨면	-9801
▁분석	-9802
▁세금	-9803
▁세죠	-9804
▁세포	-9805
▁속을	-9806
▁숙면	-9807
▁실력	-9808
▁실컷	-9809
▁쓰네	-9810
▁쓰디	-9811
▁원두	-9812
▁원서	-9813
▁입맛	-9814
▁철이	-9815
▁취급	-9816
▁취뽀	-9817
▁취준	-9818
▁흐를	-9819
겼다고	-9820
곡차곡	-9821
곳으로	-9822
관념에	-9823
급이야	-9824
긴다는	-9825
끝이네	-9826
날텐데	-9827
냈는데	-9828
년동거	-9829
는데도	-9830
는데로	-9831
는데요	-9832
니즘을	-9833
다는거	-9834
다니기	-9835
다워야	-9836
닥까지	-9837
달에는	-9838
담하지	-9839
답이나	-9840
동실에	-9841
됐는데	-9842
되는게	-9843
들어가	-9844
디오를	-9845
때까지	-9846
때리는	-9847
라는데	-9848
렇게나	-9849
렸을까	-9850
료네요	-9851
루투스	-9852
리카드	-9853
모습만	-9854
모습을	-9855
물주물	-9856
뮤니티	-9857
버렸나	-9858
베리아	-9859
보는건	-9860
보는데	-9861
보니까	-9862
봤을때	-9863
부터의	-9864
분크림	-9865
생이면	-9866
셨어요	-9867
소에서	-9868
속으로	-9869
스트나	-9870
시니까	-9871
싶어요	-9872
쓰는게	-9873
압에는	-9874
앞이죠	-9875
액형이	-9876
야할지	-9877
어가는	-9878
어야죠	-9879
어지고	-9880
언하는	-9881
었다고	-9882
에서는	-9883
였지만	-9884
오겠죠	-9885
와야지	-9886
와주지	-9887
웃풋이	-9888
워지고	-9889
웠으면	-9890
유하고	-9891
으려구	-9892
으키기	-9893
을까봐	-9894
이기가	-9895
이기도	-9896
이요법	-9897
이크업	-9898
인가를	-9899
▁과에	-9900
▁과제	-9901
▁과함	-9902
▁구경	-9903
▁구상	-9904
▁구질	-9905
▁길에	-9906
▁놓침	-9907
▁뜻은	-9908
▁로망	-9909
▁맘도	-9910
▁멀미	-9911
▁발급	-9912
▁발등	-9913
▁붙여	-9914
▁손을	-9915
▁슬슬	-9916
▁싸가	-9917
▁싸면	-9918
▁싸서	-9919
▁앞둔	-9920
▁약해	-9921
▁요긴	-9922
▁입소	-9923
▁장단	-9924
▁장사	-9925
▁짓만	-9926
▁짜지	-9927
▁커지	-9928
▁학과	-9929
▁학회	-9930
로부터	-9931
서부터	-9932
수라도	-9933
순위에	-9934
인보다	-9935
인으로	-9936
일이야	-9937
일째네	-9938
있는데	-9939
자료를	-9940
자리에	-9941
잔하네	-9942
잼에게	-9943
적인데	-9944
졌겠죠	-9945
조절이	-9946
좋을까	-9947
죄에요	-9948
주가지	-9949
주는데	-9950
주려고	-9951
중이야	-9952
중인데	-9953
지는듯	-9954
직이수	-9955
진해요	-9956
집에서	-9957
짓으로	-9958
찹하네	-9959
챘을까	-9960
처지는	-9961
컨트롤	-9962
케이스	-9963
코스터	-9964
탈취제	-9965
하게도	-9966
하기만	-9967
하나요	-9968
하더라	-9969
하시길	-9970
하지가	-9971
한만큼	-9972
할만한	-9973
할수록	-9974
할지도	-9975
해서도	-9976
해졌길	-9977
했다가	-9978
확하게	-9979
활용도	-9980
히더라	-9981
▁가는거	-9982
▁가라고	-9983
▁가방은	-9984
▁가보는	-9985
▁가볼까	-9986
▁가봤어	-9987
▁가슴을	-9988
▁각자가	-9989
▁간다고	-9990
▁간다면	-9991
▁간단한	-9992
▁감정소	-9993
▁같기도	-9994
▁같을까	-9995
▁같음을	-9996
▁같이도	-9997
▁개기름	-9998
▁개념만	-9999
▁개야	-10000
▁경과	-10001
▁경조	-10002
▁깨는	-10003
▁깨서	-10004
▁단발	-10005
▁단수	-10006
▁딸까	-10007
▁멋을	-10008
▁번복	-10009
▁번은	-10010
▁별별	-10011
▁순진	-10012
▁유세	-10013
▁잡담	-10014
▁잡혀	-10015
▁질거	-10016
▁챙겼	-10017
▁챙기	-10018
▁처량	-10019
▁천일	-10020
▁청강	-10021
▁호텔	-10022
▁환경	-10023
각한데	-10024
는건가	-10025
들었어	-10026
음이나	-10027
▁거부의	-10028
▁걱정일	-10029
▁건들이	-10030
▁건조한	-10031
▁걸어도	-10032
▁겁이나	-10033
▁것부터	-10034
▁게임할	-10035
▁겠네요	-10036
▁결심한	-10037
▁결정난	-10038
▁결정이	-10039
▁결혼도	-10040
▁결혼한	-10041
▁경제력	-10042
▁경찰에	-10043
▁계기를	-10044
▁고데기	-10045
▁고민과	-10046
▁고민돼	-10047
▁고민만	-10048
▁고민은	-10049
▁고백도	-10050
▁고백해	-10051
▁고장이	-10052
▁곤두세	-10053
▁골라줘	-10054
▁곳이요	-10055
▁공감할	-10056
▁공부가	-10057
▁공부도	-10058
▁공부에	-10059
▁공부한	-10060
▁공적인	-10061
▁과거는	-10062
▁과거의	-10063
▁과식은	-10064
▁과에서	-10065
▁과외비	-10066
▁과해도	-10067
▁관리가	-10068
▁관리를	-10069
▁관절염	-10070
▁괜찮았	-10071
▁괴로운	-10072
▁괴롭혀	-10073
▁괴물이	-10074
▁교회에	-10075
▁구꺼비	-10076
▁구두로	-10077
▁구하셨	-10078
▁구해야	-10079
▁귀엽대	-10080
▁귀찮게	-10081
▁균형이	-10082
▁그때는	-10083
▁그랬을	-10084
▁그런건	-10085
▁그런게	-10086
▁그만큰	-10087
▁그분을	-10088
▁기나긴	-10089
▁기대도	-10090
▁기대돼	-10091
▁기대로	-10092
▁기대에	-10093
▁기분만	-10094
▁기분을	-10095
▁기억할	-10096
▁기운낼	-10097
▁긴장되	-10098
▁김치도	-10099
▁개째	-10100
▁난다	-10101
▁넘을	-10102
▁볼링	-10103
▁빡빡	-10104
▁삶이	-10105
▁손이	-10106
▁숨한	-10107
▁졌어	-10108
▁청구	-10109
▁친추	-10110
▁크네	-10111
▁태몽	-10112
▁헌팅	-10113
달만에	-10114
보이네	-10115
스럽다	-10116
해보고	-10117
▁가져도	-10118
▁가지를	-10119
▁갑시다	-10120
▁까먹어	-10121
▁깨닫게	-10122
▁깨지고	-10123
▁꼬르륵	-10124
▁꼬시지	-10125
▁꼰대가	-10126
▁꽃게탕	-10127
▁꽃꽂이	-10128
▁꾸는데	-10129
▁꾸준한	-10130
▁꿈같은	-10131
▁꿈꾸던	-10132
▁꿈이었	-10133
▁꿈처럼	-10134
▁꿨는데	-10135
▁꿨는지	-10136
▁끝나길	-10137
▁끝내긴	-10138
▁끝이네	-10139
▁끝이보	-10140
▁끼세요	-10141
▁낌새가	-10142
▁나가고	-10143
▁나가도	-10144
▁나가서	-10145
▁나가요	-10146
▁나네요	-10147
▁나대로	-10148
▁나라를	-10149
▁나쁘게	-10150
▁나아요	-10151
▁나오지	-10152
▁나와야	-10153
▁나이를	-10154
▁난방이	-10155
▁날까지	-10156
▁날들이	-10157
▁날씨에	-10158
▁날이네	-10159
▁날이야	-10160
▁날인가	-10161
▁남겠죠	-10162
▁남동생	-10163
▁남보다	-10164
▁남았어	-10165
▁남이죠	-10166
▁남자로	-10167
▁남잔데	-10168
▁남친과	-10169
▁남친의	-10170
▁났는지	-10171
▁났으면	-10172
▁내거나	-10173
▁내냐구	-10174
▁내년이	-10175
▁내딛으	-10176
▁내려놔	-10177
▁내려올	-10178
▁내릴까	-10179
▁내봐요	-10180
▁내일의	-10181
▁너무힘	-10182
▁넘었어	-10183
▁노래들	-10184
▁노래로	-10185
▁노래요	-10186
▁노력이	-10187
▁노력해	-10188
▁놀까요	-10189
▁놀러가	-10190
▁놀리는	-10191
▁높겠죠	-10192
▁높으면	-10193
▁놓쳐서	-10194
▁놓쳤다	-10195
▁누구니	-10196
▁누구를	-10197
▁누룽지	-10198
▁눅눅해	-10199
▁강박	-10200
▁금값	-10201
▁긴여	-10202
▁까봐	-10203
▁네가	-10204
▁몇명	-10205
▁빨라	-10206
▁뿐이	-10207
▁솔솔	-10208
▁식상	-10209
▁온천	-10210
▁작별	-10211
▁졸게	-10212
▁초조	-10213
▁티끌	-10214
▁티나	-10215
▁폭풍	-10216
▁향한	-10217
사람을	-10218
소리가	-10219
▁가야죠	-10220
▁건강은	-10221
▁격식은	-10222
▁고생이	-10223
▁공감을	-10224
▁귀찮네	-10225
▁그리웠	-10226
▁나쁜데	-10227
▁눈사람	-10228
▁눈살이	-10229
▁눈에도	-10230
▁뉴스는	-10231
▁느낌을	-10232
▁늦어요	-10233
▁다가온	-10234
▁다같이	-10235
▁다녀와	-10236
▁다니고	-10237
▁다른걸	-10238
▁다음날	-10239
▁닥쳐올	-10240
▁단수가	-10241
▁단점을	-10242
▁달라져	-10243
▁달에는	-10244
▁답례품	-10245
▁답이야	-10246
▁답일까	-10247
▁당번을	-10248
▁당신과	-10249
▁당하고	-10250
▁당해요	-10251
▁당황할	-10252
▁대답이	-10253
▁대부분	-10254
▁대하고	-10255
▁대하면	-10256
▁대화도	-10257
▁대화한	-10258
▁더없이	-10259
▁데려가	-10260
▁도예요	-10261
▁도와준	-10262
▁도자기	-10263
▁도전을	-10264
▁돈보다	-10265
▁돌리고	-10266
▁돌아간	-10267
▁돌아섰	-10268
▁돌아온	-10269
▁동문서	-10270
▁동물원	-10271
▁동성을	-10272
▁동안의	-10273
▁됐나요	-10274
▁됐다고	-10275
▁되기가	-10276
▁되나요	-10277
▁되는줄	-10278
▁되지요	-10279
▁된다는	-10280
▁둘만의	-10281
▁뒀네요	-10282
▁드네요	-10283
▁드시지	-10284
▁들겠지	-10285
▁들어야	-10286
▁들지만	-10287
▁등으로	-10288
▁디저트	-10289
▁따돌림	-10290
▁따르기	-10291
▁따지는	-10292
▁땅만큼	-10293
▁때라고	-10294
▁때리고	-10295
▁떠나요	-10296
▁떠나지	-10297
▁떠는거	-10298
▁떠세요	-10299
▁40	-10300
▁꽃을	-10301
▁뒤따	-10302
▁듣니	-10303
▁듣지	-10304
▁면세	-10305
▁빌렸	-10306
▁양이	-10307
▁짧을	-10308
▁출국	-10309
▁출발	-10310
▁흔한	-10311
끝났네	-10312
버려요	-10313
하려구	-10314
해줘요	-10315
▁감기일	-10316
▁건조기	-10317
▁걸려요	-10318
▁것같아	-10319
▁것이요	-10320
▁극복한	-10321
▁꽃으로	-10322
▁끝나네	-10323
▁끝나서	-10324
▁남편을	-10325
▁내려요	-10326
▁다녀야	-10327
▁디져트	-10328
▁떠올라	-10329
▁떠올려	-10330
▁떨기는	-10331
▁떨려요	-10332
▁떨리는	-10333
▁떨면서	-10334
▁떨어요	-10335
▁떨어진	-10336
▁뜨겁게	-10337
▁뜻밖의	-10338
▁로그인	-10339
▁리드를	-10340
▁마시러	-10341
▁마시며	-10342
▁마치길	-10343
▁만나보	-10344
▁만날땐	-10345
▁만남을	-10346
▁만남의	-10347
▁만들까	-10348
▁만큼만	-10349
▁만하죠	-10350
▁많다고	-10351
▁많아도	-10352
▁말문이	-10353
▁말보다	-10354
▁말씀이	-10355
▁말씀해	-10356
▁말았네	-10357
▁말자고	-10358
▁말하기	-10359
▁말해봐	-10360
▁맘대로	-10361
▁맛없어	-10362
▁맛있고	-10363
▁맛있죠	-10364
▁망해도	-10365
▁맞겠지	-10366
▁맞다고	-10367
▁맞아서	-10368
▁맞았어	-10369
▁맞출까	-10370
▁매세요	-10371
▁맥주병	-10372
▁머리를	-10373
▁머릿결	-10374
▁먹고는	-10375
▁먹는게	-10376
▁먹어서	-10377
▁먹어요	-10378
▁먹었니	-10379
▁먹을게	-10380
▁먼저일	-10381
▁멋있게	-10382
▁멋있어	-10383
▁멋있죠	-10384
▁몇시간	-10385
▁몇일째	-10386
▁모기가	-10387
▁모두가	-10388
▁모르니	-10389
▁모르죠	-10390
▁모발이	-10391
▁모여요	-10392
▁목적은	-10393
▁목표가	-10394
▁몰랐던	-10395
▁못난거	-10396
▁못잊을	-10397
▁못자고	-10398
▁못하게	-10399
▁담담	-10400
▁메인	-10401
▁병이	-10402
▁봤나	-10403
▁빼도	-10404
▁삐져	-10405
▁접질	-10406
▁향기	-10407
보이는	-10408
봐주는	-10409
어주는	-10410
▁겠지요	-10411
▁고와야	-10412
▁구여친	-10413
▁나을가	-10414
▁냄새나	-10415
▁마련의	-10416
▁못하네	-10417
▁못하죠	-10418
▁무게를	-10419
▁무궁무	-10420
▁무뎌져	-10421
▁무뎌진	-10422
▁무뚝뚝	-10423
▁무리가	-10424
▁무서움	-10425
▁무섭죠	-10426
▁문자가	-10427
▁문자를	-10428
▁뭐부터	-10429
▁뭘해도	-10430
▁미련없	-10431
▁미치네	-10432
▁미치지	-10433
▁미화되	-10434
▁민감한	-10435
▁믿는데	-10436
▁밀당일	-10437
▁바꾸면	-10438
▁바다는	-10439
▁바람난	-10440
▁바람좀	-10441
▁바보는	-10442
▁바보지	-10443
▁바보짓	-10444
▁바쁘네	-10445
▁바쁠때	-10446
▁바지가	-10447
▁반가울	-10448
▁반대가	-10449
▁반했어	-10450
▁받겠지	-10451
▁받아도	-10452
▁받아요	-10453
▁받아줄	-10454
▁받지도	-10455
▁발달된	-10456
▁밥이나	-10457
▁방들이	-10458
▁배에서	-10459
▁배우실	-10460
▁버렸다	-10461
▁버티지	-10462
▁벌수록	-10463
▁벌어요	-10464
▁베였어	-10465
▁변하니	-10466
▁변하면	-10467
▁변한것	-10468
▁보내실	-10469
▁보라고	-10470
▁보안상	-10471
▁보여도	-10472
▁보여드	-10473
▁보여서	-10474
▁복잡해	-10475
▁복제가	-10476
▁봤으면	-10477
▁부담돼	-10478
▁부담을	-10479
▁부담이	-10480
▁부딪혀	-10481
▁부었어	-10482
▁부작용	-10483
▁북치기	-10484
▁분담을	-10485
▁분배를	-10486
▁분야를	-10487
▁분출할	-10488
▁불만이	-10489
▁불행을	-10490
▁붙잡을	-10491
▁블록체	-10492
▁비교돼	-10493
▁비밀로	-10494
▁비싸다	-10495
▁비싸죠	-10496
▁비용은	-10497
▁비참한	-10498
▁비타민	-10499
▁골반	-10500
▁낙엽	-10501
▁높은	-10502
▁독학	-10503
▁삼재	-10504
▁삼주	-10505
▁숨쉬	-10506
▁써야	-10507
▁폰겜	-10508
력소가	-10509
보기만	-10510
사이가	-10511
하려나	-10512
▁경우는	-10513
▁기회일	-10514
▁까먹고	-10515
▁놀기만	-10516
▁놀아서	-10517
▁맞춰줄	-10518
▁먹을래	-10519
▁못해본	-10520
▁방심한	-10521
▁변한게	-10522
▁보기만	-10523
▁비밀이	-10524
▁비틀어	-10525
▁빌게요	-10526
▁빨리감	-10527
▁빵꾸난	-10528
▁빼니까	-10529
▁뻔하다	-10530
▁뿌듯할	-10531
▁사귀게	-10532
▁사귄다	-10533
▁사귄지	-10534
▁사랑꾼	-10535
▁사야돼	-10536
▁사이도	-10537
▁사이라	-10538
▁사이트	-10539
▁사줄까	-10540
▁사진에	-10541
▁사진이	-10542
▁사투리	-10543
▁산이네	-10544
▁살기가	-10545
▁살려도	-10546
▁살려줘	-10547
▁살아도	-10548
▁상관이	-10549
▁상대와	-10550
▁상대의	-10551
▁상상은	-10552
▁상상을	-10553
▁상처준	-10554
▁상해요	-10555
▁샐러드	-10556
▁생각의	-10557
▁생겼대	-10558
▁생기죠	-10559
▁생생한	-10560
▁생활이	-10561
▁생활패	-10562
▁샤워를	-10563
▁서운한	-10564
▁서적을	-10565
▁선물할	-10566
▁설레게	-10567
▁설레면	-10568
▁설레발	-10569
▁설레서	-10570
▁설레지	-10571
▁성별은	-10572
▁성분이	-10573
▁성숙한	-10574
▁성향이	-10575
▁세다고	-10576
▁세상의	-10577
▁세우고	-10578
▁세탁소	-10579
▁센스가	-10580
▁소개해	-10581
▁소식에	-10582
▁소식을	-10583
▁소심한	-10584
▁소원이	-10585
▁소중히	-10586
▁속도가	-10587
▁속으로	-10588
▁손길이	-10589
▁손톱이	-10590
▁손해배	-10591
▁솔직히	-10592
▁쇼핑은	-10593
▁쇼핑을	-10594
▁수도가	-10595
▁수십번	-10596
▁수없이	-10597
▁수영장	-10598
▁순간은	-10599
▁쌓는	-10600
▁특히	-10601
▁팀플	-10602
▁팔뚝	-10603
▁팔찌	-10604
백한다	-10605
스리스	-10606
시켜야	-10607
▁겉모습	-10608
▁결단은	-10609
▁경향이	-10610
▁군대를	-10611
▁글자만	-10612
▁꼬리가	-10613
▁나온거	-10614
▁대놓고	-10615
▁대학교	-10616
▁독서와	-10617
▁두근두	-10618
▁뜻으로	-10619
▁배려가	-10620
▁사과를	-10621
▁새치가	-10622
▁생기기	-10623
▁생기지	-10624
▁순간을	-10625
▁순간의	-10626
▁술기운	-10627
▁술이야	-10628
▁술자리	-10629
▁숨기는	-10630
▁쉬려고	-10631
▁쉬었다	-10632
▁쉬운게	-10633
▁쉬운데	-10634
▁쉽지는	-10635
▁슈퍼문	-10636
▁스쿼트	-10637
▁스키탈	-10638
▁스킨쉽	-10639
▁스테끼	-10640
▁슬픔에	-10641
▁시간의	-10642
▁시간적	-10643
▁시기였	-10644
▁시럽을	-10645
▁시선이	-10646
▁시원할	-10647
▁시작과	-10648
▁시작도	-10649
▁시작함	-10650
▁시켜줘	-10651
▁시키지	-10652
▁식비가	-10653
▁식어서	-10654
▁식으로	-10655
▁신기한	-10656
▁신을까	-10657
▁실력이	-10658
▁실망을	-10659
▁실수한	-10660
▁실행에	-10661
▁실험실	-10662
▁싫어할	-10663
▁싫어해	-10664
▁싫으면	-10665
▁싫지는	-10666
▁심하네	-10667
▁심하면	-10668
▁싶었던	-10669
▁싶은거	-10670
▁싸세요	-10671
▁싸움이	-10672
▁쌍커풀	-10673
▁쌓였어	-10674
▁써놓고	-10675
▁썸부터	-10676
▁썸타다	-10677
▁쓰세요	-10678
▁쓰이네	-10679
▁쓰자고	-10680
▁아까운	-10681
▁아깝다	-10682
▁아니긴	-10683
▁아니셨	-10684
▁아닌가	-10685
▁아닌건	-10686
▁아들을	-10687
▁아련한	-10688
▁아세요	-10689
▁아쉬움	-10690
▁아이구	-10691
▁아이는	-10692
▁아이라	-10693
▁아이를	-10694
▁아침밥	-10695
▁아파서	-10696
▁아파트	-10697
▁아프면	-10698
▁아프죠	-10699
▁났네	-10700
▁났어	-10701
▁줬어	-10702
감상이	-10703
합시다	-10704
해줬어	-10705
▁가리면	-10706
▁가치와	-10707
▁감사한	-10708
▁경험은	-10709
▁과정을	-10710
▁과정일	-10711
▁그랬지	-10712
▁기운을	-10713
▁깊었을	-10714
▁꺼지기	-10715
▁다이렉	-10716
▁대인배	-10717
▁맛집을	-10718
▁먹었다	-10719
▁무너짐	-10720
▁무섭고	-10721
▁반장을	-10722
▁발전할	-10723
▁발표는	-10724
▁버려진	-10725
▁비가오	-10726
▁빌리면	-10727
▁사갈까	-10728
▁사실을	-10729
▁생긴거	-10730
▁속상한	-10731
▁쉬시길	-10732
▁신기해	-10733
▁싫은가	-10734
▁아픈데	-10735
▁악몽과	-10736
▁악몽을	-10737
▁악수를	-10738
▁안나와	-10739
▁안돼나	-10740
▁안되면	-10741
▁안되서	-10742
▁안아서	-10743
▁안읽씹	-10744
▁안주랑	-10745
▁안하기	-10746
▁안하려	-10747
▁안한다	-10748
▁안해서	-10749
▁않겠죠	-10750
▁않다고	-10751
▁않다면	-10752
▁않았기	-10753
▁않은데	-10754
▁알려주	-10755
▁알아내	-10756
▁알아요	-10757
▁알아주	-10758
▁알아줄	-10759
▁알지만	-10760
▁압니다	-10761
▁앞이나	-10762
▁애기가	-10763
▁애절한	-10764
▁애정이	-10765
▁액션은	-10766
▁야근이	-10767
▁약먹기	-10768
▁약이긴	-10769
▁양다리	-10770
▁양면과	-10771
▁양식을	-10772
▁얘기가	-10773
▁어디다	-10774
▁어디를	-10775
▁어떨때	-10776
▁어떻해	-10777
▁어른이	-10778
▁어울릴	-10779
▁어이가	-10780
▁어장을	-10781
▁어제가	-10782
▁어쨌든	-10783
▁어쩌죠	-10784
▁어플에	-10785
▁어플은	-10786
▁언니가	-10787
▁	-10788
요	-10789
이	-10790
어	-10791
는	-10792
하	-10793
아	-10794
가	-10795
지	-10796
다	-10797
해	-10798
고	-10799
세	-10800
을	-10801
나	-10802
사	-10803
보	-10804
도	-10805
거	-10806
게	-10807
좋	-10808
에	-10809
자	-10810
있	-10811
은	-10812
기	-10813
면	-10814
한	-10815
까	-10816
네	-10817
만	-10818
니	-10819
데	-10820
마	-10821
랑	-10822
예	-10823
서	-10824
그	-10825
겠	-10826
로	-10827
시	-10828
리	-10829
들	-10830
람	-10831
생	-10832
인	-10833
무	-10834
라	-10835
일	-10836
수	-10837
야	-10838
같	-10839
남	-10840
안	-10841
할	-10842
친	-10843
정	-10844
연	-10845
를	-10846
구	-10847
으	-10848
말	-10849
여	-10850
주	-10851
내	-10852
봐	-10853
의	-10854
죠	-10855
음	-10856
없	-10857
싶	-10858
각	-10859
제	-10860
신	-10861
것	-10862
려	-10863
오	-10864
잘	-10865
힘	-10866
너	-10867
대	-10868
상	-10869
간	-10870
많	-10871
별	-10872
더	-10873
바	-10874
않	-10875
했	-10876
스	-10877
진	-10878
부	-10879
되	-10880
애	-10881
전	-10882
드	-10883
락	-10884
었	-10885
건	-10886
저	-10887
때	-10888
모	-10889
헤	-10890
금	-10891
중	-10892
심	-10893
짝	-10894
운	-10895
화	-10896
길	-10897
썸	-10898
혼	-10899
비	-10900
워	-10901
못	-10902
러	-10903
장	-10904
물	-10905
미	-10906
적	-10907
분	-10908
알	-10909
감	-10910
먹	-10911
히	-10912
걸	-10913
습	-10914
래	-10915
당	-10916
우	-10917
받	-10918
테	-10919
행	-10920
결	-10921
소	-10922
선	-10923
달	-10924
날	-10925
르	-10926
직	-10927
좀	-10928
후	-10929
살	-10930
조	-10931
회	-10932
관	-10933
늘	-10934
았	-10935
타	-10936
돼	-10937
든	-10938
방	-10939
될	-10940
동	-10941
녀	-10942
실	-10943
복	-10944
차	-10945
과	-10946
질	-10947
뭐	-10948
른	-10949
찮	-10950
공	-10951
와	-10952
트	-10953
끝	-10954
괜	-10955
속	-10956
원	-10957
계	-10958
처	-10959
치	-10960
필	-10961
잊	-10962
두	-10963
집	-10964
문	-10965
귀	-10966
유	-10967
편	-10968
난	-10969
준	-10970
재	-10971
졌	-10972
경	-10973
런	-10974
던	-10975
답	-10976
줄	-10977
성	-10978
울	-10979
피	-10980
왜	-10981
년	-10982
렇	-10983
식	-10984
떻	-10985
느	-10986
꾸	-10987
볼	-10988
져	-10989
개	-10990
위	-10991
버	-10992
왔	-10993
떨	-10994
입	-10995
현	-10996
작	-10997
배	-10998
번	-10999
노	-11000
눈	-11001
새	-11002
맞	-11003
언	-11004
추	-11005
났	-11006
짜	-11007
또	-11008
법	-11009
잠	-11010
프	-11011
올	-11012
단	-11013
민	-11014
참	-11015
함	-11016
쓰	-11017
학	-11018
디	-11019
따	-11020
싫	-11021
력	-11022
줘	-11023
확	-11024
반	-11025
찾	-11026
겨	-11027
변	-11028
잡	-11029
담	-11030
쉬	-11031
억	-11032
카	-11033
능	-11034
점	-11035
갈	-11036
터	-11037
먼	-11038
얼	-11039
합	-11040
근	-11041
용	-11042
통	-11043
매	-11044
표	-11045
놀	-11046
술	-11047
천	-11048
절	-11049
레	-11050
련	-11051
백	-11052
누	-11053
럴	-11054
돌	-11055
머	-11056
불	-11057
맛	-11058
루	-11059
릴	-11060
발	-11061
긴	-11062
몰	-11063
호	-11064
듯	-11065
움	-11066
봅	-11067
꿈	-11068
충	-11069
랄	-11070
교	-11071
막	-11072
톡	-11073
청	-11074
파	-11075
약	-11076
접	-11077
증	-11078
영	-11079
돈	-11080
1	-11081
군	-11082
됐	-11083
취	-11084
싸	-11085
월	-11086
젠	-11087
큼	-11088
강	-11089
놓	-11090
닌	-11091
명	-11092
빠	-11093
째	-11094
곳	-11095
된	-11096
랍	-11097
외	-11098
떠	-11099
망	-11100
쁜	-11101
택	-11102
겼	-11103
믿	-11104
순	-11105
쉽	-11106
크	-11107
걱	-11108
국	-11109
임	-11110
갑	-11111
께	-11112
름	-11113
커	-11114
2	-11115
씩	-11116
업	-11117
맘	-11118
셨	-11119
앞	-11120
축	-11121
키	-11122
럽	-11123
였	-11124
온	-11125
열	-11126
폰	-11127
황	-11128
짐	-11129
설	-11130
휴	-11131
냥	-11132
슨	-11133
침	-11134
텐	-11135
뭘	-11136
쁘	-11137
슬	-11138
3	-11139
떤	-11140
럼	-11141
님	-11142
엄	-11143
궁	-11144
렸	-11145
최	-11146
허	-11147
켜	-11148
혀	-11149
착	-11150
쳐	-11151
출	-11152
태	-11153
양	-11154
격	-11155
족	-11156
험	-11157
급	-11158
록	-11159
잔	-11160
깨	-11161
존	-11162
포	-11163
갔	-11164
늦	-11165
린	-11166
환	-11167
즐	-11168
픈	-11169
형	-11170
몸	-11171
죽	-11172
체	-11173
떡	-11174
본	-11175
벌	-11176
책	-11177
극	-11178
냐	-11179
덜	-11180
산	-11181
종	-11182
챙	-11183
풀	-11184
목	-11185
써	-11186
첫	-11187
넘	-11188
플	-11189
란	-11190
항	-11191
멋	-11192
완	-11193
찍	-11194
티	-11195
낌	-11196
뿐	-11197
팅	-11198
향	-11199
붙	-11200
밥	-11201
셔	-11202
웃	-11203
견	-11204
응	-11205
초	-11206
활	-11207
글	-11208
손	-11209
평	-11210
끔	-11211
꼭	-11212
맨	-11213
숙	-11214
씨	-11215
폭	-11216
흘	-11217
즘	-11218
큰	-11219
탈	-11220
0	-11221
굴	-11222
뜻	-11223
줬	-11224
투	-11225
욕	-11226
짓	-11227
낼	-11228
닐	-11229
색	-11230
씀	-11231
곤	-11232
둘	-11233
봤	-11234
빨	-11235
뻐	-11236
뭔	-11237
솔	-11238
페	-11239
5	-11240
슴	-11241
풍	-11242
메	-11243
밀	-11244
코	-11245
꽃	-11246
병	-11247
척	-11248
냈	-11249
딱	-11250
똑	-11251
몇	-11252
졸	-11253
핸	-11254
껴	-11255
밤	-11256
며	-11257
벽	-11258
4	-11259
픔	-11260
독	-11261
찬	-11262
쳤	-11263
갖	-11264
듣	-11265
랐	-11266
림	-11267
옷	-11268
덤	-11269
밌	-11270
랜	-11271
승	-11272
역	-11273
짧	-11274
퇴	-11275
괴	-11276
끊	-11277
밖	-11278
봄	-11279
쓸	-11280
익	-11281
칭	-11282
핑	-11283
뒤	-11284
빼	-11285
펴	-11286
흐	-11287
6	-11288
꺼	-11289
료	-11290
박	-11291
베	-11292
빌	-11293
숨	-11294
악	-11295
칠	-11296
웠	-11297
흔	-11298
끼	-11299
얘	-11300
엇	-11301
깐	-11302
녕	-11303
득	-11304
렵	-11305
롭	-11306
렀	-11307
멀	-11308
깊	-11309
뎌	-11310
춰	-11311
케	-11312
곧	-11313
골	-11314
낫	-11315
석	-11316
높	-11317
삶	-11318
읽	-11319
잖	-11320
찌	-11321
채	-11322
헷	-11323
념	-11324
등	-11325
멍	-11326
숭	-11327
염	-11328
킨	-11329
퍼	-11330
꼬	-11331
냉	-11332
철	-11333
겁	-11334
꿨	-11335
뜨	-11336
벗	-11337
창	-11338
탁	-11339
끄	-11340
맥	-11341
섭	-11342
쇼	-11343
쩌	-11344
쯤	-11345
판	-11346
꿀	-11347
덧	-11348
션	-11349
십	-11350
클	-11351
특	-11352
덕	-11353
북	-11354
센	-11355
옆	-11356
팔	-11357
효	-11358
랬	-11359
례	-11360
립	-11361
뻔	-11362
엔	-11363
쟁	-11364
쩔	-11365
틀	-11366
틱	-11367
품	-11368
헛	-11369
김	-11370
깝	-11371
꿔	-11372
놈	-11373
딩	-11374
류	-11375
밍	-11376
삼	-11377
콩	-11378
패	-11379
희	-11380
권	-11381
냄	-11382
멈	-11383
싱	-11384
쌓	-11385
육	-11386
낭	-11387
땐	-11388
론	-11389
릿	-11390
삭	-11391
샀	-11392
엽	-11393
죄	-11394
즈	-11395
걷	-11396
놔	-11397
눠	-11398
됩	-11399
량	-11400
셀	-11401
턴	-11402
텨	-11403
토	-11404
획	-11405
귄	-11406
됨	-11407
브	-11408
뿌	-11409
액	-11410
7	-11411
깍	-11412
깔	-11413
뀌	-11414
녁	-11415
닥	-11416
벼	-11417
봇	-11418
웨	-11419
푸	-11420
혹	-11421
8	-11422
뀔	-11423
끈	-11424
뉴	-11425
뒷	-11426
듭	-11427
쐬	-11428
잤	-11429
흡	-11430
귈	-11431
긍	-11432
꼼	-11433
농	-11434
둬	-11435
딸	-11436
슷	-11437
썼	-11438
옴	-11439
컨	-11440
흥	-11441
갚	-11442
깜	-11443
끌	-11444
닫	-11445
렌	-11446
블	-11447
쓴	-11448
씹	-11449
왕	-11450
춥	-11451
콜	-11452
푹	-11453
걔	-11454
곰	-11455
규	-11456
낮	-11457
넌	-11458
넣	-11459
딴	-11460
뛰	-11461
링	-11462
뽑	-11463
씻	-11464
쪽	-11465
찰	-11466
춘	-11467
칼	-11468
컴	-11469
9	-11470
값	-11471
곁	-11472
깎	-11473
끗	-11474
낸	-11475
널	-11476
듬	-11477
렘	-11478
맙	-11479
몽	-11480
밝	-11481
봉	-11482
빛	-11483
빡	-11484
옥	-11485
잃	-11486
첩	-11487
콘	-11488
콤	-11489
탄	-11490
탔	-11491
헬	-11492
혔	-11493
겹	-11494
껏	-11495
꾹	-11496
닉	-11497
딪	-11498
랫	-11499
룩	-11500
뤄	-11501
맡	-11502
벚	-11503
빈	-11504
샤	-11505
앉	-11506
잇	-11507
탕	-11508
털	-11509
힌	-11510
검	-11511
낀	-11512
납	-11513
넓	-11514
녹	-11515
닮	-11516
둔	-11517
땀	-11518
땅	-11519
띄	-11520
롱	-11521
벤	-11522
엉	-11523
잼	-11524
짠	-11525
찔	-11526
콕	-11527
툰	-11528
팍	-11529
낄	-11530
늙	-11531
땡	-11532
뚝	-11533
렬	-11534
령	-11535
뢰	-11536
볶	-11537
빵	-11538
뻑	-11539
뽀	-11540
쁠	-11541
섬	-11542
씁	-11543
압	-11544
얻	-11545
왤	-11546
웬	-11547
젖	-11548
짱	-11549
킁	-11550
템	-11551
푼	-11552
햇	-11553
훈	-11554
객	-11555
곡	-11556
긋	-11557
꼈	-11558
꽤	-11559
끓	-11560
낙	-11561
낳	-11562
뒀	-11563
뜰	-11564
뱃	-11565
송	-11566
싼	-11567
쌩	-11568
앗	-11569
징	-11570
쩍	-11571
쪄	-11572
쪼	-11573
찼	-11574
춤	-11575
층	-11576
켠	-11577
탐	-11578
툴	-11579
휘	-11580
곱	-11581
광	-11582
궈	-11583
낚	-11584
눅	-11585
늠	-11586
닝	-11587
닿	-11588
돋	-11589
둠	-11590
둥	-11591
뒹	-11592
똥	-11593
롤	-11594
릎	-11595
묻	-11596
밑	-11597
밟	-11598
벅	-11599
범	-11600
쉴	-11601
슈	-11602
쌍	-11603
썹	-11604
쑥	-11605
옳	-11606
욱	-11607
젯	-11608
찜	-11609
찢	-11610
첨	-11611
퀴	-11612
톱	-11613
툼	-11614
틋	-11615
팩	-11616
팸	-11617
퓨	-11618
헥	-11619
흑	-11620
겟	-11621
긁	-11622
꾼	-11623
댈	-11624
렛	-11625
렜	-11626
률	-11627
릅	-11628
묵	-11629
볍	-11630
빚	-11631
쁨	-11632
삐	-11633
싹	-11634
쌈	-11635
쎄	-11636
쏟	-11637
쏠	-11638
씌	-11639
엮	-11640
왠	-11641
윗	-11642
쫄	-11643
쫌	-11644
찐	-11645
촉	-11646
츠	-11647
켰	-11648
쿨	-11649
탓	-11650
틈	-11651
팀	-11652
팠	-11653
폼	-11654
헌	-11655
홀	-11656
힐	-11657
갠	-11658
겪	-11659
굳	-11660
껄	-11661
꼰	-11662
꽉	-11663
넷	-11664
놨	-11665
댓	-11666
덥	-11667
딘	-11668
딛	-11669
떼	-11670
뚫	-11671
램	-11672
릇	-11673
맴	-11674
맷	-11675
맺	-11676
멘	-11677
몫	-11678
밉	-11679
빙	-11680
빴	-11681
샌	-11682
앨	-11683
엠	-11684
욜	-11685
웹	-11686
율	-11687
좌	-11688
줌	-11689
쥐	-11690
짚	-11691
짰	-11692
쭉	-11693
쭤	-11694
총	-11695
촬	-11696
컥	-11697
컷	-11698
컸	-11699
텁	-11700
텔	-11701
팁	-11702
팬	-11703
펑	-11704
풋	-11705
핫	-11706
훔	-11707
흠	-11708
갱	-11709
겉	-11710
겐	-11711
깰	-11712
꽝	-11713
꿰	-11714
넋	-11715
뇌	-11716
눌	-11717
눕	-11718
닷	-11719
댄	-11720
돕	-11721
됬	-11722
딜	-11723
땜	-11724
떴	-11725
뜬	-11726
띠	-11727
랖	-11728
랙	-11729
렐	-11730
렴	-11731
륵	-11732
몬	-11733
묘	-11734
샜	-11735
숫	-11736
썩	-11737
앱	-11738
얽	-11739
엊	-11740
엿	-11741
옵	-11742
왓	-11743
젤	-11744
졋	-11745
짼	-11746
측	-11747
캬	-11748
쿠	-11749
쿵	-11750
킬	-11751
턱	-11752
텀	-11753
텅	-11754
툭	-11755
헐	-11756
헹	-11757
홈	-11758
홧	-11759
걍	-11760
겜	-11761
괘	-11762
균	-11763
귤	-11764
깃	-11765
깅	-11766
깬	-11767
깼	-11768
꼴	-11769
꽂	-11770
꿩	-11771
넛	-11772
넥	-11773
넹	-11774
녔	-11775
논	-11776
뇨	-11777
눴	-11778
닦	-11779
닭	-11780
댔	-11781
덩	-11782
덮	-11783
뚱	-11784
띰	-11785
띵	-11786
랭	-11787
렉	-11788
룰	-11789
룸	-11790
룽	-11791
륜	-11792
릭	-11793
맹	-11794
뮤	-11795
밭	-11796
벨	-11797
볕	-11798
붓	-11799
뷔	-11800
빽	-11801
뺏	-11802
뻤	-11803
뽕	-11804
뿅	-11805
삔	-11806
샐	-11807
샘	-11808
섞	-11809
섣	-11810
섯	-11811
섰	-11812
섹	-11813
솜	-11814
쇠	-11815
숏	-11816
썰	-11817
쑤	-11818
씰	-11819
씸	-11820
얇	-11821
옛	-11822
옮	-11823
왼	-11824
웁	-11825
웽	-11826
윙	-11827
젊	-11828
젝	-11829
줍	-11830
쥬	-11831
즙	-11832
짤	-11833
짬	-11834
쨌	-11835
쪘	-11836
찡	-11837
찹	-11838
챘	-11839
쳇	-11840
칩	-11841
캄	-11842
캐	-11843
캔	-11844
켓	-11845
콧	-11846
쿼	-11847
킥	-11848
킹	-11849
텼	-11850
톤	-11851
퉁	-11852
튀	-11853
튜	-11854
펭	-11855
픽	-11856
핀	-11857
헉	-11858
혈	-11859
혐	-11860
훅	-11861
훌	-11862
휙	-11863
흰	-11864
갇	-11865
갯	-11866
곗	-11867
굶	-11868
굽	-11869
굿	-11870
궜	-11871
귐	-11872
깠	-11873
깡	-11874
꺽	-11875
껀	-11876
꼿	-11877
꽁	-11878
꽈	-11879
꿎	-11880
꿧	-11881
뀐	-11882
냅	-11883
놉	-11884
뇽	-11885
늪	-11886
닙	-11887
닳	-11888
댜	-11889
덴	-11890
델	-11891
뎠	-11892
둑	-11893
듀	-11894
듦	-11895
딧	-11896
딨	-11897
땠	-11898
떄	-11899
뗄	-11900
뛴	-11901
뜁	-11902
뜩	-11903
뜸	-11904
랠	-11905
랩	-11906
럿	-11907
렁	-11908
렷	-11909
롯	-11910
멤	-11911
몹	-11912
뭇	-11913
뭉	-11914
뭣	-11915
밸	-11916
뱄	-11917
뱉	-11918
벋	-11919
벴	-11920
뵈	-11921
붕	-11922
빔	-11923
빗	-11924
뺄	-11925
뺴	-11926
뻘	-11927
뻣	-11928
뻥	-11929
뿍	-11930
삽	-11931
삿	-11932
셥	-11933
숍	-11934
쉼	-11935
쌀	-11936
쌤	-11937
쎈	-11938
쎌	-11939
쏘	-11940
쏜	-11941
씬	-11942
씽	-11943
앙	-11944
얄	-11945
엘	-11946
엣	-11947
옇	-11948
욌	-11949
윤	-11950
잌	-11951
잦	-11952
잿	-11953
젔	-11954
젹	-11955
좁	-11956
즉	-11957
쩐	-11958
쩝	-11959
쩡	-11960
쫙	-11961
쭈	-11962
찝	-11963
챔	-11964
챗	-11965
촌	-11966
췄	-11967
츄	-11968
츤	-11969
칙	-11970
칫	-11971
컹	-11972
쾌	-11973
큐	-11974
킴	-11975
탑	-11976
탱	-11977
텄	-11978
텍	-11979
텻	-11980
퉜	-11981
펜	-11982
펨	-11983
펼	-11984
폐	-11985
퐈	-11986
픕	-11987
핍	-11988
핏	-11989
햐	-11990
협	-11991
혜	-11992
훨	-11993
휨	-11994
힙	-11995
